{"<unk>":0,"!":1,"\"":2,"%":3,"&":4,"'":5,"(":6,")":7,"*":8,"+":9,",":10,"-":11,".":12,"/":13,"0":14,"1":15,"2":16,"3":17,"4":18,"5":19,"6":20,"7":21,"8":22,"9":23,":":24,";":25,"<":26,"=":27,">":28,"?":29,"@":30,"A":31,"B":32,"C":33,"D":34,"E":35,"F":36,"G":37,"I":38,"K":39,"L":40,"M":41,"N":42,"O":43,"P":44,"R":45,"S":46,"T":47,"V":48,"W":49,"X":50,"[":51,"]":52,"^":53,"_":54,"`":55,"a":56,"b":57,"c":58,"d":59,"e":60,"f":61,"g":62,"h":63,"i":64,"j":65,"k":66,"l":67,"m":68,"n":69,"o":70,"p":71,"r":72,"s":73,"t":74,"u":75,"v":76,"w":77,"x":78,"y":79,"z":80,"~":81,"★":82,"♡":83,"♥":84,"ㄱ":85,"ㄴ":86,"ㄷ":87,"ㄹ":88,"ㅁ":89,"ㅂ":90,"ㅅ":91,"ㅇ":92,"ㅈ":93,"ㅉ":94,"ㅋ":95,"ㅎ":96,"ㅏ":97,"ㅗ":98,"ㅜ":99,"ㅠ":100,"ㅡ":101,"ㅣ":102,"가":103,"각":104,"간":105,"갈":106,"감":107,"갑":108,"값":109,"갓":110,"갔":111,"강":112,"갖":113,"같":114,"개":115,"객":116,"갠":117,"갱":118,"걍":119,"거":120,"건":121,"걸":122,"검":123,"겁":124,"것":125,"겉":126,"게":127,"겐":128,"겟":129,"겠":130,"겨":131,"격":132,"견":133,"결":134,"겹":135,"겼":136,"경":137,"계":138,"고":139,"곡":140,"곤":141,"골":142,"곱":143,"곳":144,"공":145,"과":146,"관":147,"광":148,"괜":149,"괴":150,"굉":151,"교":152,"구":153,"국":154,"군":155,"굳":156,"굴":157,"굿":158,"궁":159,"권":160,"귀":161,"규":162,"균":163,"그":164,"극":165,"근":166,"글":167,"금":168,"급":169,"기":170,"긴":171,"길":172,"김":173,"깊":174,"까":175,"깎":176,"깐":177,"깔":178,"깜":179,"깝":180,"깨":181,"꺼":182,"껄":183,"껏":184,"께":185,"껴":186,"꼈":187,"꼬":188,"꼭":189,"꼴":190,"꼽":191,"꽃":192,"꽝":193,"꽤":194,"꾸":195,"꾼":196,"꿀":197,"꿈":198,"꿔":199,"뀌":200,"끄":201,"끈":202,"끊":203,"끌":204,"끔":205,"끝":206,"끼":207,"낀":208,"낄":209,"낌":210,"나":211,"낙":212,"낚":213,"난":214,"날":215,"남":216,"납":217,"낫":218,"났":219,"낭":220,"낮":221,"낳":222,"내":223,"낸":224,"낼":225,"냄":226,"냈":227,"냉":228,"냐":229,"냥":230,"너":231,"넌":232,"널":233,"넘":234,"넣":235,"네":236,"넷":237,"녀":238,"년":239,"념":240,"녕":241,"노":242,"녹":243,"논":244,"놀":245,"놈":246,"농":247,"높":248,"놓":249,"놔":250,"놨":251,"뇌":252,"누":253,"눈":254,"뉴":255,"느":256,"는":257,"늘":258,"늙":259,"능":260,"늦":261,"니":262,"닉":263,"닌":264,"닐":265,"님":266,"닙":267,"닝":268,"다":269,"닥":270,"단":271,"닫":272,"달":273,"닮":274,"담":275,"답":276,"당":277,"닿":278,"대":279,"댄":280,"댓":281,"더":282,"덕":283,"던":284,"덜":285,"덤":286,"덩":287,"데":288,"덴":289,"뎁":290,"도":291,"독":292,"돈":293,"돋":294,"돌":295,"동":296,"돼":297,"됐":298,"되":299,"된":300,"될":301,"됨":302,"됩":303,"됬":304,"두":305,"둘":306,"둥":307,"뒤":308,"뒷":309,"드":310,"득":311,"든":312,"듣":313,"들":314,"듬":315,"듭":316,"듯":317,"등":318,"디":319,"딘":320,"딧":321,"딩":322,"따":323,"딱":324,"딴":325,"딸":326,"땅":327,"때":328,"땐":329,"땜":330,"땡":331,"떄":332,"떠":333,"떡":334,"떤":335,"떨":336,"떻":337,"떼":338,"또":339,"똑":340,"똥":341,"뚝":342,"뚱":343,"뛰":344,"뜨":345,"뜩":346,"뜬":347,"뜻":348,"라":349,"락":350,"란":351,"랄":352,"람":353,"랍":354,"랐":355,"랑":356,"래":357,"랙":358,"랜":359,"램":360,"랫":361,"랬":362,"략":363,"량":364,"러":365,"럭":366,"런":367,"럴":368,"럼":369,"럽":370,"렁":371,"렇":372,"레":373,"렉":374,"렌":375,"려":376,"력":377,"련":378,"렬":379,"렵":380,"렷":381,"렸":382,"령":383,"례":384,"로":385,"록":386,"론":387,"롭":388,"롯":389,"롱":390,"뢰":391,"료":392,"룡":393,"루":394,"룬":395,"류":396,"륜":397,"률":398,"륭":399,"르":400,"른":401,"를":402,"름":403,"리":404,"릭":405,"린":406,"릴":407,"림":408,"립":409,"릿":410,"링":411,"마":412,"막":413,"만":414,"많":415,"말":416,"맘":417,"맙":418,"맛":419,"망":420,"맞":421,"맡":422,"매":423,"맥":424,"맨":425,"맹":426,"머":427,"먹":428,"먼":429,"멀":430,"멈":431,"멋":432,"멍":433,"메":434,"멘":435,"멜":436,"며":437,"면":438,"멸":439,"명":440,"몇":441,"모":442,"목":443,"몬":444,"몰":445,"몸":446,"못":447,"몽":448,"묘":449,"무":450,"묵":451,"문":452,"묻":453,"물":454,"뭉":455,"뭐":456,"뭔":457,"뭘":458,"뮤":459,"므":460,"미":461,"믹":462,"민":463,"믿":464,"밀":465,"밋":466,"밌":467,"밑":468,"바":469,"박":470,"밖":471,"반":472,"받":473,"발":474,"밝":475,"밤":476,"밥":477,"방":478,"배":479,"백":480,"뱀":481,"버":482,"번":483,"벌":484,"범":485,"법":486,"벗":487,"베":488,"벤":489,"벨":490,"벼":491,"벽":492,"변":493,"별":494,"볍":495,"병":496,"보":497,"복":498,"본":499,"볼":500,"봄":501,"봅":502,"봇":503,"봉":504,"봐":505,"봣":506,"봤":507,"부":508,"북":509,"분":510,"불":511,"붕":512,"붙":513,"뷰":514,"브":515,"븐":516,"블":517,"비":518,"빅":519,"빈":520,"빌":521,"빗":522,"빙":523,"빛":524,"빠":525,"빡":526,"빨":527,"빵":528,"빼":529,"뻐":530,"뻔":531,"뽑":532,"뽕":533,"뿌":534,"뿐":535,"뿔":536,"쁘":537,"쁜":538,"쁨":539,"사":540,"삭":541,"산":542,"살":543,"삶":544,"삼":545,"상":546,"새":547,"색":548,"샘":549,"생":550,"샤":551,"서":552,"석":553,"섞":554,"선":555,"설":556,"섬":557,"섭":558,"섯":559,"성":560,"세":561,"섹":562,"센":563,"셀":564,"셈":565,"셉":566,"셔":567,"션":568,"셨":569,"소":570,"속":571,"손":572,"솔":573,"송":574,"쇼":575,"수":576,"숙":577,"순":578,"술":579,"숨":580,"숭":581,"쉬":582,"쉽":583,"슈":584,"스":585,"슨":586,"슬":587,"슴":588,"습":589,"슷":590,"승":591,"시":592,"식":593,"신":594,"실":595,"싫":596,"심":597,"십":598,"싱":599,"싶":600,"싸":601,"쌍":602,"써":603,"썩":604,"썼":605,"쎄":606,"쏘":607,"쓰":608,"쓴":609,"쓸":610,"씀":611,"씁":612,"씨":613,"씩":614,"씬":615,"씹":616,"아":617,"악":618,"안":619,"앉":620,"않":621,"알":622,"암":623,"압":624,"앗":625,"았":626,"앙":627,"앞":628,"애":629,"액":630,"앤":631,"야":632,"약":633,"양":634,"얘":635,"어":636,"억":637,"언":638,"얻":639,"얼":640,"엄":641,"업":642,"없":643,"엇":644,"었":645,"엉":646,"에":647,"엑":648,"엔":649,"엘":650,"엠":651,"여":652,"역":653,"연":654,"열":655,"염":656,"엽":657,"엿":658,"였":659,"영":660,"옆":661,"예":662,"옛":663,"오":664,"옥":665,"온":666,"올":667,"옴":668,"옷":669,"옹":670,"와":671,"완":672,"왓":673,"왔":674,"왕":675,"왜":676,"왠":677,"외":678,"요":679,"욕":680,"용":681,"우":682,"욱":683,"운":684,"울":685,"움":686,"웃":687,"웅":688,"워":689,"원":690,"월":691,"웠":692,"웨":693,"웬":694,"위":695,"윌":696,"유":697,"육":698,"윤":699,"율":700,"으":701,"은":702,"을":703,"음":704,"응":705,"의":706,"이":707,"익":708,"인":709,"일":710,"읽":711,"잃":712,"임":713,"입":714,"잇":715,"있":716,"잉":717,"잊":718,"자":719,"작":720,"잔":721,"잖":722,"잘":723,"잠":724,"잡":725,"잤":726,"장":727,"재":728,"잭":729,"잼":730,"쟁":731,"저":732,"적":733,"전":734,"절":735,"젊":736,"점":737,"접":738,"정":739,"제":740,"젠":741,"젤":742,"져":743,"졌":744,"조":745,"족":746,"존":747,"졸":748,"좀":749,"종":750,"좋":751,"좌":752,"죄":753,"죠":754,"주":755,"죽":756,"준":757,"줄":758,"줌":759,"줍":760,"중":761,"줘":762,"줬":763,"쥐":764,"쥬":765,"즈":766,"즌":767,"즐":768,"즘":769,"증":770,"지":771,"직":772,"진":773,"질":774,"짐":775,"집":776,"짓":777,"징":778,"짜":779,"짝":780,"짠":781,"짧":782,"짱":783,"째":784,"쩌":785,"쩐":786,"쩔":787,"쩜":788,"쩝":789,"쩡":790,"쪽":791,"쫌":792,"쯤":793,"쯧":794,"찌":795,"찍":796,"찝":797,"찡":798,"차":799,"착":800,"찬":801,"찮":802,"찰":803,"참":804,"창":805,"찾":806,"채":807,"책":808,"챙":809,"처":810,"척":811,"천":812,"철":813,"첨":814,"첩":815,"첫":816,"청":817,"체":818,"쳐":819,"쳤":820,"초":821,"촌":822,"총":823,"촬":824,"최":825,"쵝":826,"추":827,"축":828,"춘":829,"출":830,"춤":831,"충":832,"춰":833,"취":834,"츠":835,"측":836,"치":837,"칙":838,"친":839,"칠":840,"침":841,"칭":842,"카":843,"칸":844,"칼":845,"캐":846,"커":847,"컨":848,"컬":849,"컴":850,"컷":851,"케":852,"켜":853,"코":854,"콘":855,"콜":856,"콤":857,"콩":858,"쾌":859,"쿠":860,"퀄":861,"퀴":862,"큐":863,"크":864,"큰":865,"클":866,"큼":867,"키":868,"킨":869,"킬":870,"킹":871,"타":872,"탁":873,"탄":874,"탈":875,"탐":876,"탑":877,"탕":878,"태":879,"택":880,"터":881,"턴":882,"털":883,"테":884,"텐":885,"텔":886,"토":887,"톤":888,"톰":889,"톱":890,"통":891,"퇴":892,"투":893,"퉁":894,"튀":895,"트":896,"특":897,"튼":898,"틀":899,"틈":900,"티":901,"틱":902,"틴":903,"팀":904,"팅":905,"파":906,"팍":907,"판":908,"팔":909,"패":910,"팩":911,"팬":912,"퍼":913,"펐":914,"펑":915,"페":916,"펙":917,"펜":918,"편":919,"평":920,"폐":921,"포":922,"폭":923,"폰":924,"폴":925,"표":926,"푸":927,"푹":928,"풀":929,"품":930,"풋":931,"풍":932,"퓨":933,"프":934,"픈":935,"플":936,"픔":937,"피":938,"픽":939,"필":940,"하":941,"학":942,"한":943,"할":944,"함":945,"합":946,"항":947,"해":948,"핵":949,"햇":950,"했":951,"행":952,"향":953,"허":954,"헌":955,"헐":956,"험":957,"헛":958,"헤":959,"헬":960,"혀":961,"혁":962,"현":963,"혈":964,"혐":965,"협":966,"형":967,"혜":968,"호":969,"혹":970,"혼":971,"홀":972,"홍":973,"화":974,"확":975,"환":976,"활":977,"황":978,"회":979,"획":980,"효":981,"후":982,"훈":983,"훌":984,"훨":985,"휘":986,"휴":987,"흉":988,"흐":989,"흑":990,"흔":991,"흘":992,"흠":993,"흡":994,"흥":995,"희":996,"히":997,"힌":998,"힐":999,"힘":1000,"가</w>":1001,"제</w>":1002,"픈</w>":1003,"는</w>":1004,"이</w>":1005,"데</w>":1006,"은</w>":1007,"할</w>":1008,"과</w>":1009,"니</w>":1010,"서</w>":1011,"로</w>":1012,"지</w>":1013,"의</w>":1014,"에</w>":1015,"만</w>":1016,"요</w>":1017,"다</w>":1018,"용</w>":1019,"한</w>":1020,"상</w>":1021,"럼</w>":1022,"기</w>":1023,"디</w>":1024,"도</w>":1025,"테</w>":1026,"고</w>":1027,"생</w>":1028,"개</w>":1029,"O</w>":1030,"식</w>":1031,"를</w>":1032,"야</w>":1033,"랑</w>":1034,"건</w>":1035,"며</w>":1036,"론</w>":1037,"음</w>":1038,"알</w>":1039,"찮</w>":1040,"푹</w>":1041,"란</w>":1042,"라</w>":1043,"l</w>":1044,"군</w>":1045,"게</w>":1046,"ㅜ</w>":1047,"나</w>":1048,"인</w>":1049,"구</w>":1050,"률</w>":1051,"때</w>":1052,"혀</w>":1053,"전</w>":1054,"어</w>":1055,"을</w>":1056,"적</w>":1057,"2</w>":1058,"물</w>":1059,"길</w>":1060,"독</w>":1061,"까</w>":1062,"희</w>":1063,"z</w>":1064,"워</w>":1065,"해</w>":1066,"3</w>":1067,"네</w>":1068,"함</w>":1069,"ㅡ</w>":1070,"리</w>":1071,"됨</w>":1072,"겐</w>":1073,"W</w>":1074,"께</w>":1075,"주</w>":1076,"후</w>":1077,"관</w>":1078,"포</w>":1079,"화</w>":1080,"냐</w>":1081,"든</w>":1082,"거</w>":1083,"운</w>":1084,"ㅋ</w>":1085,"졸</w>":1086,"임</w>":1087,"빈</w>":1088,"널</w>":1089,"진</w>":1090,"성</w>":1091,"선</w>":1092,"질</w>":1093,"것</w>":1094,"마</w>":1095,"딱</w>":1096,"걸</w>":1097,"혜</w>":1098,"던</w>":1099,"별</w>":1100,"K</w>":1101,"셈</w>":1102,"여</w>":1103,"죠</w>":1104,"뜩</w>":1105,"줄</w>":1106,"친</w>":1107,"흠</w>":1108,"히</w>":1109,"점</w>":1110,"쥐</w>":1111,"X</w>":1112,"청</w>":1113,"준</w>":1114,"쓸</w>":1115,"노</w>":1116,"본</w>":1117,"땐</w>":1118,"슨</w>":1119,"정</w>":1120,"면</w>":1121,"터</w>":1122,"왜</w>":1123,"출</w>":1124,"듯</w>":1125,"둥</w>":1126,"대</w>":1127,"명</w>":1128,"좀</w>":1129,"세</w>":1130,"져</w>":1131,"계</w>":1132,"스</w>":1133,"부</w>":1134,"두</w>":1135,"들</w>":1136,"형</w>":1137,"무</w>":1138,"트</w>":1139,"ㅎ</w>":1140,"와</w>":1141,"자</w>":1142,"아</w>":1143,"줘</w>":1144,"체</w>":1145,"울</w>":1146,"잼</w>":1147,"애</w>":1148,"ㅠ</w>":1149,"♥</w>":1150,"림</w>":1151,"흡</w>":1152,"호</w>":1153,"치</w>":1154,"님</w>":1155,"수</w>":1156,"찰</w>":1157,"내</w>":1158,"더</w>":1159,"d</w>":1160,"반</w>":1161,"y</w>":1162,"h</w>":1163,"그</w>":1164,"e</w>":1165,"드</w>":1166,"s</w>":1167,"튼</w>":1168,"살</w>":1169,"버</w>":1170,"난</w>":1171,"영</w>":1172,"미</w>":1173,"옴</w>":1174,"경</w>":1175,"쉬</w>":1176,"판</w>":1177,"람</w>":1178,"악</w>":1179,"봐</w>":1180,"5</w>":1181,"등</w>":1182,"씨</w>":1183,"당</w>":1184,"즈</w>":1185,"작</w>":1186,"땅</w>":1187,"타</w>":1188,"안</w>":1189,"습</w>":1190,"팅</w>":1191,"뿐</w>":1192,"쫌</w>":1193,"ㅈ</w>":1194,"직</w>":1195,"토</w>":1196,"멜</w>":1197,"월</w>":1198,"먼</w>":1199,"사</w>":1200,"릴</w>":1201,"듬</w>":1202,"프</w>":1203,"압</w>":1204,"랙</w>":1205,"놈</w>":1206,"긴</w>":1207,"흔</w>":1208,"우</w>":1209,"머</w>":1210,"공</w>":1211,"철</w>":1212,"신</w>":1213,"떄</w>":1214,"온</w>":1215,"0</w>":1216,"연</w>":1217,"참</w>":1218,"덴</w>":1219,"케</w>":1220,"려</w>":1221,"품</w>":1222,"쓴</w>":1223,"딸</w>":1224,"입</w>":1225,"동</w>":1226,"u</w>":1227,"분</w>":1228,"엔</w>":1229,"단</w>":1230,"카</w>":1231,"래</w>":1232,"각</w>":1233,"장</w>":1234,"b</w>":1235,"o</w>":1236,"소</w>":1237,"슴</w>":1238,"련</w>":1239,"짜</w>":1240,"짐</w>":1241,"석</w>":1242,"접</w>":1243,"엇</w>":1244,"짱</w>":1245,"올</w>":1246,"증</w>":1247,"티</w>":1248,"x</w>":1249,"시</w>":1250,"늘</w>":1251,"심</w>":1252,"ㅉ</w>":1253,"례</w>":1254,"촌</w>":1255,"껏</w>":1256,"배</w>":1257,"말</w>":1258,"씀</w>":1259,"열</w>":1260,"극</w>":1261,"럽</w>":1262,"n</w>":1263,"B</w>":1264,"족</w>":1265,"쯤</w>":1266,"중</w>":1267,"ㄴ</w>":1268,"름</w>":1269,"감</w>":1270,"록</w>":1271,"쇼</w>":1272,"유</w>":1273,"법</w>":1274,"녀</w>":1275,"춰</w>":1276,"순</w>":1277,"년</w>":1278,"표</w>":1279,"쟁</w>":1280,"오</w>":1281,"초</w>":1282,"8</w>":1283,"회</w>":1284,"퍼</w>":1285,"되</w>":1286,"염</w>":1287,"저</w>":1288,"낌</w>":1289,"뻔</w>":1290,"혹</w>":1291,"끼</w>":1292,"차</w>":1293,"바</w>":1294,"룡</w>":1295,"복</w>":1296,"막</w>":1297,"양</w>":1298,"모</w>":1299,"책</w>":1300,"p</w>":1301,"채</w>":1302,"덕</w>":1303,"절</w>":1304,"츠</w>":1305,"볼</w>":1306,"줌</w>":1307,"윌</w>":1308,"곳</w>":1309,"집</w>":1310,"러</w>":1311,"6</w>":1312,"된</w>":1313,"실</w>":1314,"간</w>":1315,"예</w>":1316,"결</w>":1317,"박</w>":1318,"르</w>":1319,"♡</w>":1320,"천</w>":1321,"남</w>":1322,"7</w>":1323,"합</w>":1324,"종</w>":1325,"효</w>":1326,"업</w>":1327,"플</w>":1328,"뭐</w>":1329,"ㅂ</w>":1330,"옹</w>":1331,"륜</w>":1332,"른</w>":1333,"t</w>":1334,"딩</w>":1335,"풀</w>":1336,"런</w>":1337,"i</w>":1338,"원</w>":1339,"곡</w>":1340,"엿</w>":1341,"링</w>":1342,"D</w>":1343,"틱</w>":1344,"찌</w>":1345,"덩</w>":1346,"색</w>":1347,"향</w>":1348,"태</w>":1349,"몽</w>":1350,"깐</w>":1351,"굿</w>":1352,"낀</w>":1353,"급</w>":1354,"헌</w>":1355,"클</w>":1356,"꼭</w>":1357,"움</w>":1358,"9</w>":1359,"린</w>":1360,"편</w>":1361,"팬</w>":1362,"턴</w>":1363,"보</w>":1364,"처</w>":1365,"일</w>":1366,"역</w>":1367,"브</w>":1368,"셉</w>":1369,"텔</w>":1370,"비</w>":1371,"퀴</w>":1372,"똥</w>":1373,"료</w>":1374,"땡</w>":1375,"큼</w>":1376,"날</w>":1377,"빵</w>":1378,"파</w>":1379,"매</w>":1380,"빨</w>":1381,"레</w>":1382,"큐</w>":1383,"퉁</w>":1384,"욱</w>":1385,"코</w>":1386,"S</w>":1387,"펑</w>":1388,"ㄷ</w>":1389,"크</w>":1390,"써</w>":1391,"번</w>":1392,"교</w>":1393,"발</w>":1394,"환</w>":1395,"C</w>":1396,"m</w>":1397,"꼬</w>":1398,"션</w>":1399,"키</w>":1400,"깨</w>":1401,"설</w>":1402,"냥</w>":1403,"쁨</w>":1404,"존</w>":1405,"삼</w>":1406,"돼</w>":1407,"갑</w>":1408,"싶</w>":1409,"류</w>":1410,"락</w>":1411,"L</w>":1412,"침</w>":1413,"현</w>":1414,"민</w>":1415,"헤</w>":1416,"ㅇ</w>":1417,"목</w>":1418,"힐</w>":1419,"ㅣ</w>":1420,"벼</w>":1421,"봄</w>":1422,"잉</w>":1423,"김</w>":1424,"금</w>":1425,"넘</w>":1426,"북</w>":1427,"완</w>":1428,"산</w>":1429,"광</w>":1430,"즌</w>":1431,"T</w>":1432,"또</w>":1433,"묵</w>":1434,"R</w>":1435,"걍</w>":1436,"겨</w>":1437,"징</w>":1438,"골</w>":1439,"닌</w>":1440,"좌</w>":1441,"껄</w>":1442,"즘</w>":1443,"텐</w>":1444,"벨</w>":1445,"섭</w>":1446,"위</w>":1447,"왕</w>":1448,"죽</w>":1449,"굳</w>":1450,"틴</w>":1451,"괴</w>":1452,"슬</w>":1453,"셔</w>":1454,"척</w>":1455,"빌</w>":1456,"듣</w>":1457,"랜</w>":1458,"았</w>":1459,"밋</w>":1460,"력</w>":1461,"a</w>":1462,"억</w>":1463,"외</w>":1464,"칠</w>":1465,"담</w>":1466,"낸</w>":1467,"견</w>":1468,"방</w>":1469,"ㄱ</w>":1470,"추</w>":1471,"령</w>":1472,"능</w>":1473,"속</w>":1474,"딘</w>":1475,"솔</w>":1476,"송</w>":1477,"컷</w>":1478,"롯</w>":1479,"잔</w>":1480,"콩</w>":1481,"느</w>":1482,"녕</w>":1483,"루</w>":1484,"꽝</w>":1485,"병</w>":1486,"f</w>":1487,"릭</w>":1488,"행</w>":1489,"갈</w>":1490,"커</w>":1491,"V</w>":1492,"컴</w>":1493,"망</w>":1494,"격</w>":1495,"쁜</w>":1496,"깜</w>":1497,"1</w>":1498,"멀</w>":1499,"암</w>":1500,"짝</w>":1501,"쾌</w>":1502,"랄</w>":1503,"재</w>":1504,"규</w>":1505,"씩</w>":1506,"확</w>":1507,"4</w>":1508,"훈</w>":1509,"총</w>":1510,"술</w>":1511,"꺼</w>":1512,"샘</w>":1513,"씬</w>":1514,"찬</w>":1515,"톱</w>":1516,"킨</w>":1517,"싱</w>":1518,"블</w>":1519,"픔</w>":1520,"c</w>":1521,"떠</w>":1522,"익</w>":1523,"따</w>":1524,"돌</w>":1525,"켜</w>":1526,"투</w>":1527,"닝</w>":1528,"누</w>":1529,"곤</w>":1530,"휴</w>":1531,"립</w>":1532,"칸</w>":1533,"균</w>":1534,"글</w>":1535,"풍</w>":1536,"겟</w>":1537,"봅</w>":1538,"항</w>":1539,"객</w>":1540,"율</w>":1541,"ㄹ</w>":1542,"학</w>":1543,"새</w>":1544,"혈</w>":1545,"r</w>":1546,"벽</w>":1547,"F</w>":1548,"언</w>":1549,"ㅗ</w>":1550,"변</w>":1551,"릿</w>":1552,"꽤</w>":1553,"밥</w>":1554,"w</w>":1555,"찡</w>":1556,"탄</w>":1557,"돈</w>":1558,"답</w>":1559,"폭</w>":1560,"렬</w>":1561,"으</w>":1562,"힌</w>":1563,"승</w>":1564,"빠</w>":1565,"근</w>":1566,"봉</w>":1567,"엉</w>":1568,"끝</w>":1569,"탁</w>":1570,"창</w>":1571,"헛</w>":1572,"닉</w>":1573,"큰</w>":1574,"뒤</w>":1575,"밌</w>":1576,"귀</w>":1577,"슈</w>":1578,"P</w>":1579,"탑</w>":1580,"하</w>":1581,"강</w>":1582,"맨</w>":1583,"낼</w>":1584,"탕</w>":1585,"딴</w>":1586,"ㅁ</w>":1587,"메</w>":1588,"달</w>":1589,"국</w>":1590,"콜</w>":1591,"백</w>":1592,"꾸</w>":1593,"략</w>":1594,"굴</w>":1595,"뎁</w>":1596,"겹</w>":1597,"쩡</w>":1598,"탈</w>":1599,"v</w>":1600,"E</w>":1601,"취</w>":1602,"택</w>":1603,"잡</w>":1604,"권</w>":1605,"끔</w>":1606,"째</w>":1607,"첨</w>":1608,"젤</w>":1609,"밤</w>":1610,"왓</w>":1611,"념</w>":1612,"A</w>":1613,"헐</w>":1614,"쩔</w>":1615,"밀</w>":1616,"몬</w>":1617,"싸</w>":1618,"떡</w>":1619,"맛</w>":1620,"량</w>":1621,"될</w>":1622,"털</w>":1623,"혼</w>":1624,"웠</w>":1625,"조</w>":1626,"뽕</w>":1627,"범</w>":1628,"킹</w>":1629,"쌍</w>":1630,"피</w>":1631,"불</w>":1632,"k</w>":1633,"껴</w>":1634,"웅</w>":1635,"얼</w>":1636,"약</w>":1637,"G</w>":1638,"뷰</w>":1639,"너</w>":1640,"롱</w>":1641,"폰</w>":1642,"었</w>":1643,"덜</w>":1644,"험</w>":1645,"젠</w>":1646,"엑</w>":1647,"갓</w>":1648,"홍</w>":1649,"죄</w>":1650,"황</w>":1651,"ㅏ</w>":1652,"톤</w>":1653,"묘</w>":1654,"뜻</w>":1655,"꿈</w>":1656,"옷</w>":1657,"얘</w>":1658,"먹</w>":1659,"캐</w>":1660,"넌</w>":1661,"=</w>":1662,"닥</w>":1663,"쓰</w>":1664,"빗</w>":1665,"ㅅ</w>":1666,"축</w>":1667,"쳐</w>":1668,"엽</w>":1669,"섹</w>":1670,"콘</w>":1671,"충</w>":1672,"g</w>":1673,"짓</w>":1674,"흥</w>":1675,"멍</w>":1676,"칙</w>":1677,"문</w>":1678,"쩌</w>":1679,"빙</w>":1680,"삶</w>":1681,"평</w>":1682,"섬</w>":1683,"춤</w>":1684,"쯧</w>":1685,"븐</w>":1686,"논</w>":1687,"잇</w>":1688,"센</w>":1689,"j</w>":1690,"값</w>":1691,"깔</w>":1692,"옥</w>":1693,"놔</w>":1694,"쪽</w>":1695,"힘</w>":1696,"필</w>":1697,"쩜</w>":1698,"붕</w>":1699,"뭔</w>":1700,"몰</w>":1701,"엄</w>":1702,"램</w>":1703,"쥬</w>":1704,"앞</w>":1705,"끈</w>":1706,"통</w>":1707,"셀</w>":1708,"엘</w>":1709,"뻐</w>":1710,"룬</w>":1711,"혐</w>":1712,"응</w>":1713,"뮤</w>":1714,"픽</w>":1715,"칼</w>":1716,"앙</w>":1717,"럴</w>":1718,"틀</w>":1719,"패</w>":1720,"욕</w>":1721,"닿</w>":1722,"허</w>":1723,"M</w>":1724,"득</w>":1725,"퀄</w>":1726,"웃</w>":1727,"활</w>":1728,"낮</w>":1729,"뚱</w>":1730,"N</w>":1731,"였</w>":1732,"뜨</w>":1733,"낄</w>":1734,"흑</w>":1735,"육</w>":1736,"빛</w>":1737,"칭</w>":1738,"둘</w>":1739,"잘</w>":1740,"콤</w>":1741,"렁</w>":1742,"뭘</w>":1743,"했</w>":1744,"숙</w>":1745,"즐</w>":1746,"손</w>":1747,"꼴</w>":1748,"렉</w>":1749,"뱀</w>":1750,"삭</w>":1751,"쏘</w>":1752,"★</w>":1753,"렌</w>":1754,"착</w>":1755,"춘</w>":1756,"측</w>":1757,"믹</w>":1758,"앤</w>":1759,"꾼</w>":1760,"궁</w>":1761,"윤</w>":1762,"퇴</w>":1763,"쿠</w>":1764,"팩</w>":1765,"맘</w>":1766,"끌</w>":1767,"꽃</w>":1768,"멘</w>":1769,"눈</w>":1770,"없</w>":1771,"베</w>":1772,"탐</w>":1773,"킬</w>":1774,"뿔</w>":1775,"꿔</w>":1776,"샤</w>":1777,"&</w>":1778,"꿀</w>":1779,"잠</w>":1780,"낙</w>":1781,"씁</w>":1782,"*</w>":1783,"팍</w>":1784,"액</w>":1785,"냉</w>":1786,"덤</w>":1787,"펜</w>":1788,"못</w>":1789,"렷</w>":1790,"깝</w>":1791,"랍</w>":1792,"멸</w>":1793,"넷</w>":1794,"팀</w>":1795,"맥</w>":1796,"곱</w>":1797,"흘</w>":1798,"혁</w>":1799,"쉽</w>":1800,"럭</w>":1801,"딧</w>":1802,"농</w>":1803,"쩐</w>":1804,"협</w>":1805,"같</w>":1806,"렵</w>":1807,"몸</w>":1808,"갱</w>":1809,"?</w>":1810,"놀</w>":1811,"흐</w>":1812,"벌</w>":1813,"앗</w>":1814,"첫</w>":1815,"맹</w>":1816,"있</w>":1817,"뜬</w>":1818,"싫</w>":1819,"폴</w>":1820,"떼</w>":1821,"떤</w>":1822,"첩</w>":1823,"></w>":1824,"페</w>":1825,"벤</w>":1826,"겠</w>":1827,"낭</w>":1828,"쎄</w>":1829,"흉</w>":1830,"뚝</w>":1831,"몇</w>":1832,"댄</w>":1833,"컬</w>":1834,"냄</w>":1835,"닐</w>":1836,"뇌</w>":1837,"핵</w>":1838,"획</w>":1839,"끄</w>":1840,"웨</w>":1841,"검</w>":1842,"엠</w>":1843,"납</w>":1844,"홀</w>":1845,"최</w>":1846,"륭</w>":1847,"똑</w>":1848,"겉</w>":1849,"됩</w>":1850,"풋</w>":1851,"톰</w>":1852,"틈</w>":1853,"빡</w>":1854,"붙</w>":1855,"섯</w>":1856,"찍</w>":1857,".</w>":1858,"휘</w>":1859,"롭</w>":1860,"봇</w>":1861,"-</w>":1862,"멈</w>":1863,"펙</w>":1864,"컨</w>":1865,"슷</w>":1866,"밑</w>":1867,"읽</w>":1868,"뉴</w>":1869,"폐</w>":1870,"짠</w>":1871,"닫</w>":1872,"특</w>":1873,"쩝</w>":1874,"웬</w>":1875,"숭</w>":1876,"튀</w>":1877,"십</w>":1878,"~</w>":1879,"겼</w>":1880,"맞</w>":1881,"멋</w>":1882,"잭</w>":1883,"겁</w>":1884,"팔</w>":1885,"헬</w>":1886,"벗</w>":1887,"숨</w>":1888,"밖</w>":1889,"댓</w>":1890,"퓨</w>":1891,"뢰</w>":1892,"떨</w>":1893,"빼</w>":1894,"깊</w>":1895,"푸</w>":1896,"!</w>":1897,"뿌</w>":1898,"낚</w>":1899,"/</w>":1900,"높</w>":1901,"I</w>":1902,"얻</w>":1903,"므</w>":1904,"훌</w>":1905,"훨</w>":1906,"썩</w>":1907,"땜</w>":1908,"봤</w>":1909,"@</w>":1910,"<</w>":1911,"줬</w>":1912,"왠</w>":1913,"묻</w>":1914,"좋</w>":1915,"낫</w>":1916,"뀌</w>":1917,",</w>":1918,"듭</w>":1919,";</w>":1920,"꼽</w>":1921,"잤</w>":1922,"`</w>":1923,"났</w>":1924,"랫</w>":1925,"많</w>":1926,"촬</w>":1927,"녹</w>":1928,"햇</w>":1929,"+</w>":1930,"'</w>":1931,"%</w>":1932,"뒷</w>":1933,"않</w>":1934,"[</w>":1935,"(</w>":1936,"쵝</w>":1937,"돋</w>":1938,")</w>":1939,"옆</w>":1940,"빅</w>":1941,"^</w>":1942,"씹</w>":1943,"]</w>":1944,"쁘</w>":1945,"괜</w>":1946,"옛</w>":1947,"렇</w>":1948,":</w>":1949,"졌</w>":1950,"젊</w>":1951,"_</w>":1952,"찝</w>":1953,"랐</w>":1954,"\"</w>":1955,"갖</w>":1956,"닙</w>":1957,"영화":1958,"영화</w>":1959,"ㅋㅋ":1960,"니다</w>":1961,"는데</w>":1962,"재미":1963,"지만</w>":1964,"재밌":1965,"하고</w>":1966,"너무</w>":1967,"정말</w>":1968,"네요</w>":1969,"으로</w>":1970,"진짜</w>":1971,"에서</w>":1972,"연기":1973,"하는</w>":1974,"생각":1975,"어요</w>":1976,"스토":1977,"드라":1978,"습니다</w>":1979,"이다</w>":1980,"최고":1981,"ㅋㅋ</w>":1982,"하다</w>":1983,"사람":1984,"배우":1985,"보고</w>":1986,"ㅋㅋㅋㅋ":1987,"평점":1988,"지루":1989,"만들":1990,"재미있":1991,"아니":1992,"10":1993,"감동":1994,"없는</w>":1995,"없다</w>":1996,"하게</w>":1997,"들이</w>":1998,"그냥</w>":1999,"영화를</w>":2000,"내용":2001,"보다</w>":2002,"까지</w>":2003,"스토리":2004,"쓰레":2005,"이런</w>":2006,"영화는</w>":2007,"이라":2008,"너무":2009,"감독":2010,"영화가</w>":2011,"었다</w>":2012,"해서</w>":2013,"좋아":2014,"나오":2015,"사랑":2016,"하는":2017,"있는</w>":2018,"봤는데</w>":2019,"시간":2020,"적인</w>":2021,"면서</w>":2022,"리고</w>":2023,"렇게</w>":2024,"마지":2025,"드라마":2026,"다는</w>":2027,"다가</w>":2028,"좋았":2029,"보고":2030,"재미없":2031,"드라마</w>":2032,"입니다</w>":2033,"으면</w>":2034,"이런":2035,"같은</w>":2036,"주인":2037,"아깝":2038,"들의</w>":2039,"ㅠㅠ</w>":2040,"기대":2041,"다고</w>":2042,"모르":2043,"이야":2044,"최고의</w>":2045,"라고</w>":2046,"이건</w>":2047,"내가</w>":2048,"지는</w>":2049,"연기</w>":2050,"하지만</w>":2051,"보는</w>":2052,"하나":2053,"이렇게</w>":2054,"ㅋㅋㅋ</w>":2055,"없고</w>":2056,"보는":2057,"아까":2058,"아이":2059,"평점</w>":2060,"적이":2061,"액션":2062,"이거</w>":2063,"세요</w>":2064,"그래":2065,"들은</w>":2066,"이게</w>":2067,"이해":2068,"장면":2069,"완전</w>":2070,"봐도</w>":2071,"정도":2072,"어서</w>":2073,"보면</w>":2074,"그리고</w>":2075,"으로":2076,"한다</w>":2077,"OO":2078,"좋은</w>":2079,"합니다</w>":2080,"처음":2081,"인데</w>":2082,"했다</w>":2083,"최고</w>":2084,"기억":2085,"괜찮":2086,"한국":2087,"쓰레기":2088,"작품":2089,"스토리</w>":2090,"ㅎㅎ</w>":2091,"겠다</w>":2092,"없이</w>":2093,"적으로</w>":2094,"때문":2095,"부터</w>":2096,"되는</w>":2097,"하지</w>":2098,"주는</w>":2099,"지도</w>":2100,"평점이</w>":2101,"다시</w>":2102,"쓰레기</w>":2103,"아름":2104,"최악":2105,"주인공":2106,"역시</w>":2107,"나는</w>":2108,"보여":2109,"이상":2110,"ㅡㅡ</w>":2111,"것도</w>":2112,"우리":2113,"여자":2114,"다면</w>":2115,"대로</w>":2116,"에게</w>":2117,"이나</w>":2118,"하나</w>":2119,"아깝다</w>":2120,"같다</w>":2121,"마지막":2122,"많이</w>":2123,"ㅠㅠ":2124,"있다</w>":2125,"1점":2126,"마음":2127,"현실":2128,"내내</w>":2129,"지금":2130,"다시":2131,"영화다</w>":2132,"는게</w>":2133,"때문에</w>":2134,"유치":2135,"말이</w>":2136,"있었":2137,"공포":2138,"하면</w>":2139,"연출":2140,"에서":2141,"은데</w>":2142,"하고":2143,"볼만":2144,"재밌게</w>":2145,"20":2146,"라는</w>":2147,"아무":2148,"몰입":2149,"지않":2150,"재밋":2151,"만에</w>":2152,"는지</w>":2153,"만드":2154,"짜증":2155,"영화의</w>":2156,"느낌":2157,"스릴":2158,"진짜":2159,"ㅋㅋㅋㅋㅋㅋㅋㅋ":2160,"필요":2161,"소재":2162,"았다</w>":2163,"그런":2164,"이야기":2165,"남자":2166,"인간":2167,"대한</w>":2168,"다니</w>":2169,"극장":2170,"매력":2171,"아서</w>":2172,"코미":2173,"스럽":2174,"명작":2175,"을까</w>":2176,"솔직":2177,"일본":2178,"리는</w>":2179,"정말":2180,"작품</w>":2181,"가는</w>":2182,"니까</w>":2183,"였다</w>":2184,"애니":2185,"싶다</w>":2186,"마지막</w>":2187,"구나</w>":2188,"눈물":2189,"무슨</w>":2190,"만든</w>":2191,"봤다</w>":2192,"가장</w>":2193,"아름다":2194,"보기":2195,"이고</w>":2196,"스러":2197,"인지</w>":2198,"캐릭":2199,"했는데</w>":2200,"반전":2201,"가슴":2202,"별로":2203,"영상":2204,"만들어":2205,"인가</w>":2206,"에는</w>":2207,"처럼</w>":2208,"었는데</w>":2209,"나서</w>":2210,"별로</w>":2211,"원작":2212,"10점":2213,"중에</w>":2214,"10점</w>":2215,"지마":2216,"는다</w>":2217,"는거":2218,"전개":2219,"아닌":2220,"시리":2221,"음악":2222,"다른</w>":2223,"메이":2224,"수준":2225,"이거":2226,"시간</w>":2227,"좋다</w>":2228,"끝까지</w>":2229,"그렇":2230,"여운":2231,"는데":2232,"대체</w>":2233,"솔직히</w>":2234,"어떻":2235,"인생":2236,"없음</w>":2237,"긴장":2238,"지고</w>":2239,"하기":2240,"그래도</w>":2241,"자체":2242,"떨어":2243,"들을</w>":2244,"건지</w>":2245,"감독</w>":2246,"부분":2247,"나도</w>":2248,"려고</w>":2249,"개봉":2250,"ㅋㅋㅋㅋ</w>":2251,"영화에</w>":2252,"이야기</w>":2253,"안되":2254,"않고</w>":2255,"주고</w>":2256,"수가</w>":2257,"보다가</w>":2258,"나왔":2259,"대단":2260,"그러":2261,"라도</w>":2262,"억지":2263,"것이</w>":2264,"가족":2265,"보이":2266,"된다</w>":2267,"아직":2268,"지금</w>":2269,"감동</w>":2270,"근데</w>":2271,"정도</w>":2272,"했던</w>":2273,"웃기":2274,"하네요</w>":2275,"많은</w>":2276,"표현":2277,"만든":2278,"아요</w>":2279,"이랑</w>":2280,"재미</w>":2281,"연기가</w>":2282,"밖에</w>":2283,"나오는</w>":2284,"만들었":2285,"전혀</w>":2286,"느낌</w>":2287,"아주</w>":2288,"아니다</w>":2289,"좋은":2290,"0년":2291,"에도</w>":2292,"잔잔":2293,"수록</w>":2294,"있고</w>":2295,"뭔가</w>":2296,"공감":2297,"모습":2298,"실망":2299,"이었":2300,"봤습니다</w>":2301,"흥미":2302,"해도</w>":2303,"아쉽":2304,"재밌다</w>":2305,"전에</w>":2306,"재미없다</w>":2307,"어이":2308,"있는":2309,"준다</w>":2310,"아니고</w>":2311,"느껴":2312,"아쉬":2313,"나온":2314,"아니라</w>":2315,"결말":2316,"최악의</w>":2317,"중간":2318,"보면서</w>":2319,"ㅜㅜ</w>":2320,"연기도</w>":2321,"난다</w>":2322,"개인":2323,"들어":2324,"봐야":2325,"다는":2326,"어떻게</w>":2327,"들도</w>":2328,"명작</w>":2329,"보고싶":2330,"캐릭터":2331,"어디":2332,"제목":2333,"스타":2334,"이라</w>":2335,"제작":2336,"알았":2337,"소리":2338,"무서":2339,"배우</w>":2340,"같이</w>":2341,"00":2342,"스트":2343,"나와":2344,"하네</w>":2345,"이걸</w>":2346,"타임":2347,"정신":2348,"오랜":2349,"보니</w>":2350,"재미있게</w>":2351,"차라":2352,"하는데</w>":2353,"영화였":2354,"것을</w>":2355,"대사":2356,"액션</w>":2357,"친구":2358,"한번</w>":2359,"무섭":2360,"모르겠":2361,"모두</w>":2362,"시나":2363,"아닌</w>":2364,"좋고</w>":2365,"영화라고</w>":2366,"이유":2367,"재밌었":2368,"시간이</w>":2369,"알바":2370,"어설":2371,"잼있":2372,"내용도</w>":2373,"따뜻":2374,"이라는</w>":2375,"완전":2376,"내용이</w>":2377,"스터":2378,"영화입니다</w>":2379,"의미":2380,"차라리</w>":2381,"특히</w>":2382,"감독이</w>":2383,"1점</w>":2384,"면서":2385,"배우들</w>":2386,"주인공</w>":2387,"시대":2388,"추천":2389,"해요</w>":2390,"로맨":2391,"부족":2392,"에요</w>":2393,"계속</w>":2394,"으나</w>":2395,"던데</w>":2396,"스토리가</w>":2397,"보세요</w>":2398,"훌륭":2399,"느끼":2400,"연기력":2401,"연출</w>":2402,"아름다운</w>":2403,"감독의</w>":2404,"거리":2405,"한번":2406,"기도</w>":2407,"이지</w>":2408,"감동적이":2409,"시리즈":2410,"코미디":2411,"기에</w>":2412,"살아":2413,"시작":2414,"이라고</w>":2415,"정도로</w>":2416,"만드는</w>":2417,"재밌어요</w>":2418,"우리나":2419,"출연":2420,"영화도</w>":2421,"1편":2422,"기가</w>":2423,"배우들의</w>":2424,"시청":2425,"작가":2426,"무엇":2427,"끝나":2428,"스토리도</w>":2429,"세상":2430,"이야</w>":2431,"모든</w>":2432,"슬프":2433,"봤어요</w>":2434,"막장":2435,"한데</w>":2436,"제대로</w>":2437,"않은</w>":2438,"아직도</w>":2439,"영화로</w>":2440,"노래":2441,"자신":2442,"제일</w>":2443,"어도</w>":2444,"감정":2445,"답답":2446,"내용</w>":2447,"마다</w>":2448,"성이</w>":2449,"신선":2450,"없는":2451,"시나리":2452,"하면서</w>":2453,"인듯</w>":2454,"행복":2455,"을때</w>":2456,"진다</w>":2457,"영화라":2458,"얼마":2459,"만한</w>":2460,"장난":2461,"기는</w>":2462,"보기</w>":2463,"보다":2464,"한테</w>":2465,"캐스":2466,"분위":2467,"도대체</w>":2468,"아까운</w>":2469,"군요</w>":2470,"만큼</w>":2471,"없었":2472,"그런</w>":2473,"지가</w>":2474,"하시":2475,"이제":2476,"미국":2477,"좋았다</w>":2478,"ㅎㅎ":2479,"같은":2480,"더라</w>":2481,"않는</w>":2482,"다른":2483,"해야":2484,"으로도</w>":2485,"돌아":2486,"이란</w>":2487,"마지막에</w>":2488,"듯한</w>":2489,"네요":2490,"리스":2491,"재미도</w>":2492,"엔딩":2493,"진심</w>":2494,"레이":2495,"여운이</w>":2496,"기분":2497,"해주":2498,"치는</w>":2499,"처음</w>":2500,"장면</w>":2501,"최악</w>":2502,"이제</w>":2503,"대박</w>":2504,"안타":2505,"하게":2506,"고싶":2507,"나름</w>":2508,"오랜만에</w>":2509,"기를</w>":2510,"이네</w>":2511,"만화":2512,"인생</w>":2513,"어색":2514,"관객":2515,"킬링":2516,"연기는</w>":2517,"영화중</w>":2518,"네이":2519,"지루하고</w>":2520,"어요":2521,"했지만</w>":2522,"최고다</w>":2523,"더니</w>":2524,"전쟁":2525,"ㅋㅋㅋ":2526,"남는</w>":2527,"동안</w>":2528,"지말":2529,"사람</w>":2530,"보는내내</w>":2531,"나요</w>":2532,"왜이":2533,"좋아하는</w>":2534,"같아요</w>":2535,"귀여":2536,"애니메이":2537,"힘들":2538,"추억":2539,"라이":2540,"역사":2541,"재밌게":2542,"안되는</w>":2543,"봤던</w>":2544,"이건":2545,"긴장감":2546,"뻔한</w>":2547,"위해</w>":2548,"이영화</w>":2549,"인상":2550,"보지마":2551,"아름답":2552,"않았":2553,"완벽":2554,"이지만</w>":2555,"영화관":2556,"사람이</w>":2557,"배경":2558,"문제":2559,"엄청":2560,"개연":2561,"어린":2562,"어울":2563,"스러운</w>":2564,"대박":2565,"요즘</w>":2566,"리가</w>":2567,"하기</w>":2568,"인물":2569,"치고</w>":2570,"oo":2571,"까지":2572,"니다":2573,"진부":2574,"1점도</w>":2575,"할수":2576,"허접":2577,"웃음":2578,"가서</w>":2579,"좋아요</w>":2580,"로운</w>":2581,"프로":2582,"이네요</w>":2583,"유쾌":2584,"보게":2585,"보았":2586,"보단</w>":2587,"개인적으로</w>":2588,"절대</w>":2589,"다큐":2590,"사랑</w>":2591,"모든":2592,"코미디</w>":2593,"것은</w>":2594,"비디":2595,"아버":2596,"이쁘":2597,"초반":2598,"그나":2599,"보시":2600,"조금</w>":2601,"아무리</w>":2602,"제발</w>":2603,"하며</w>":2604,"강추</w>":2605,"구만</w>":2606,"고는</w>":2607,"이상</w>":2608,"보게</w>":2609,"이해가</w>":2610,"나올":2611,"예술":2612,"같은데</w>":2613,"생각이</w>":2614,"갈수록</w>":2615,"나이":2616,"봐라</w>":2617,"찾아":2618,"그저</w>":2619,"스릴러":2620,"얼마나</w>":2621,"극장에서</w>":2622,"사회":2623,"영화인":2624,"재미가</w>":2625,"들이":2626,"봐서</w>":2627,"주제":2628,"추천</w>":2629,"후회":2630,"는거</w>":2631,"말이":2632,"엄청</w>":2633,"영화네요</w>":2634,"ㅉㅉ</w>":2635,"재밌음</w>":2636,"0년대</w>":2637,"소름":2638,"잔인":2639,"궁금":2640,"어릴":2641,"점은</w>":2642,"그렇게</w>":2643,"킬링타임":2644,"노잼</w>":2645,"싶은</w>":2646,"했음</w>":2647,"나게</w>":2648,"후반":2649,"가요</w>":2650,"시키":2651,"언제":2652,"티비":2653,"전개</w>":2654,"한마":2655,"라면</w>":2656,"충분":2657,"따라":2658,"한국</w>":2659,"모르겠다</w>":2660,"엄마":2661,"집중":2662,"하나도</w>":2663,"주연":2664,"면서도</w>":2665,"순수":2666,"멋진</w>":2667,"코믹":2668,"함을</w>":2669,"너무나</w>":2670,"그래서</w>":2671,"는건</w>":2672,"되었":2673,"불쌍":2674,"지루하다</w>":2675,"자기</w>":2676,"텐데</w>":2677,"19":2678,"결국</w>":2679,"점이</w>":2680,"기억에</w>":2681,"비슷":2682,"건가</w>":2683,"구요</w>":2684,"평가":2685,"놓고</w>":2686,"함께</w>":2687,"수준</w>":2688,"설정":2689,"을듯</w>":2690,"것이다</w>":2691,"뛰어":2692,"본다</w>":2693,"는영화</w>":2694,"빠져":2695,"포스터":2696,"못한</w>":2697,"좋겠":2698,"지나":2699,"보여주":2700,"드는</w>":2701,"방송":2702,"아님</w>":2703,"위한</w>":2704,"진정":2705,"감사":2706,"사실":2707,"보는데</w>":2708,"수를</w>":2709,"없네</w>":2710,"사람들</w>":2711,"상상":2712,"내용은</w>":2713,"재미없음</w>":2714,"OOO":2715,"이름":2716,"괜찮은</w>":2717,"더럽":2718,"장르":2719,"재미있었":2720,"있는데</w>":2721,"지를</w>":2722,"어야</w>":2723,"충격":2724,"오래":2725,"그나마</w>":2726,"당히</w>":2727,"렸다</w>":2728,"어지":2729,"연기를</w>":2730,"다르":2731,"보지</w>":2732,"상황":2733,"들에게</w>":2734,"지루한</w>":2735,"내가":2736,"인이</w>":2737,"더빙":2738,"보다는</w>":2739,"봤지만</w>":2740,"길래</w>":2741,"매우</w>":2742,"이영화":2743,"오글":2744,"웠다</w>":2745,"ㄷㄷ</w>":2746,"성을</w>":2747,"볼수":2748,"마음이</w>":2749,"적이고</w>":2750,"당시</w>":2751,"들과</w>":2752,"여러":2753,"나와서</w>":2754,"무슨":2755,"영화임</w>":2756,"굉장":2757,"대해</w>":2758,"에게":2759,"전체":2760,"해라</w>":2761,"비교":2762,"않는다</w>":2763,"귀엽":2764,"아니</w>":2765,"이는</w>":2766,"판타":2767,"캐스팅":2768,"나온</w>":2769,"그냥":2770,"엉성":2771,"없었다</w>":2772,"눈물이</w>":2773,"세계":2774,"가슴이</w>":2775,"2편":2776,"같음</w>":2777,"나고</w>":2778,"없어</w>":2779,"지만":2780,"영화였다</w>":2781,"함이</w>":2782,"여자</w>":2783,"있어서</w>":2784,"장면이</w>":2785,"봤음</w>":2786,"없어서</w>":2787,"학교":2788,"이가</w>":2789,"간만에</w>":2790,"바로</w>":2791,"사람들이</w>":2792,"200":2793,"평론":2794,"사람은</w>":2795,"ㅜㅜ":2796,"어렸":2797,"이라도</w>":2798,"자체가</w>":2799,"중국":2800,"영화인데</w>":2801,"었던</w>":2802,"하려":2803,"기억이</w>":2804,"기다":2805,"많이":2806,"실화":2807,"야지</w>":2808,"간다</w>":2809,"자연":2810,"한마디":2811,"케이":2812,"주인공이</w>":2813,"얼굴":2814,"그리":2815,"이라면</w>":2816,"화려":2817,"시즌":2818,"재밌는</w>":2819,"어떤</w>":2820,"♥♥":2821,"다니":2822,"재밌고</w>":2823,"속에</w>":2824,"있지만</w>":2825,"한거":2826,"해서":2827,"가지고</w>":2828,"리지</w>":2829,"스릴러</w>":2830,"되고</w>":2831,"린다</w>":2832,"마이":2833,"이었다</w>":2834,"중간에</w>":2835,"력이</w>":2836,"있음</w>":2837,"하겠":2838,"이게":2839,"시나리오":2840,"배우들이</w>":2841,"워서</w>":2842,"있을":2843,"사이":2844,"성도</w>":2845,"않다</w>":2846,"결말</w>":2847,"뭐야</w>":2848,"때마다</w>":2849,"소설":2850,"스토리는</w>":2851,"다음":2852,"아까움</w>":2853,"졸작</w>":2854,"초딩":2855,"머리":2856,"해지는</w>":2857,"훨씬</w>":2858,"라서</w>":2859,"뭐지</w>":2860,"재미있어요</w>":2861,"제가</w>":2862,"생각을</w>":2863,"반전</w>":2864,"거의</w>":2865,"점대":2866,"나의</w>":2867,"감동도</w>":2868,"영화관에서</w>":2869,"나라":2870,"스럽다</w>":2871,"30":2872,"대한":2873,"독특":2874,"어쩌":2875,"다운":2876,"다들</w>":2877,"있을까</w>":2878,"가능":2879,"당신":2880,"여기":2881,"좋은데</w>":2882,"지도":2883,"학생":2884,"느낌이</w>":2885,"이것":2886,"지루함</w>":2887,"많은":2888,"우리</w>":2889,"음악</w>":2890,"점을</w>":2891,"아쉽다</w>":2892,"그대로</w>":2893,"CG":2894,"든다</w>":2895,"사람들은</w>":2896,"ood</w>":2897,"도저":2898,"배우가</w>":2899,"가지</w>":2900,"일본</w>":2901,"비디오":2902,"누가</w>":2903,"었음</w>":2904,"어설픈</w>":2905,"것같":2906,"단순":2907,"오늘</w>":2908,"조금":2909,"생각보다</w>":2910,"지루하":2911,"ㅠㅠㅠㅠ":2912,"등장":2913,"수작</w>":2914,"자기":2915,"당시":2916,"한영화</w>":2917,"결말이</w>":2918,"버린</w>":2919,"상당히</w>":2920,"알고</w>":2921,"예쁘":2922,"옛날":2923,"어른":2924,"괜찮았":2925,"건데</w>":2926,"대로":2927,"시리즈</w>":2928,"연기력</w>":2929,"허무":2930,"가는":2931,"가치":2932,"실망</w>":2933,"적이다</w>":2934,"파이":2935,"잖아</w>":2936,"거지</w>":2937,"감이</w>":2938,"도없고</w>":2939,"분들</w>":2940,"다고":2941,"다는게</w>":2942,"멋지":2943,"감동을</w>":2944,"진정한</w>":2945,"연히</w>":2946,"우리나라</w>":2947,"ㅡㅡ":2948,"아프":2949,"에선</w>":2950,"도가</w>":2951,"부터":2952,"으니</w>":2953,"스가</w>":2954,"이딴":2955,"있게</w>":2956,"막장</w>":2957,"재미있다</w>":2958,"보여주는</w>":2959,"개그":2960,"시절":2961,"존재":2962,"그러나</w>":2963,"다만</w>":2964,"평점을</w>":2965,"잔잔한</w>":2966,"굉장히</w>":2967,"일이</w>":2968,"기대</w>":2969,"개도</w>":2970,"살인":2971,"진심":2972,"려서</w>":2973,"할수</w>":2974,"감동적인</w>":2975,"년이</w>":2976,"안하고</w>":2977,"자가</w>":2978,"중요":2979,"재밌네요</w>":2980,"교훈":2981,"기분</w>":2982,"모두":2983,"상영":2984,"시절</w>":2985,"나온다</w>":2986,"뭐냐</w>":2987,"있어</w>":2988,"이였":2989,"잘못":2990,"지지</w>":2991,"짜리</w>":2992,"쓰레기영화</w>":2993,"예고":2994,"프랑":2995,"그런지</w>":2996,"ㅎㅎㅎ</w>":2997,"수작":2998,"졌다</w>":2999,"전개가</w>":3000,"확실":3001,"대사</w>":3002,"수도</w>":3003,"없네요</w>":3004,"화이":3005,"영상미":3006,"가고</w>":3007,"거나</w>":3008,"만큼":3009,"예상":3010,"요즘":3011,"201":3012,"ㅋㅋㅋㅋㅋㅋㅋㅋㅋㅋㅋㅋㅋㅋㅋㅋ":3013,"에서도</w>":3014,"몇번":3015,"겠지만</w>":3016,"관람":3017,"두번":3018,"땜에</w>":3019,"비해</w>":3020,"에로":3021,"이나":3022,"즐거":3023,"인의</w>":3024,"받아":3025,"역시":3026,"리를</w>":3027,"소리</w>":3028,"재미는</w>":3029,"감독은</w>":3030,"마음에</w>":3031,"르는</w>":3032,"이면</w>":3033,"생각</w>":3034,"요소":3035,"한게</w>":3036,"하는게</w>":3037,"갑자기</w>":3038,"불편":3039,"누구":3040,"이후":3041,"말도</w>":3042,"이러":3043,"장면은</w>":3044,"하하":3045,"노잼":3046,"좋네요</w>":3047,"하냐</w>":3048,"해주는</w>":3049,"몰랐":3050,"있었다</w>":3051,"평범":3052,"원작을</w>":3053,"안타깝":3054,"이정도":3055,"적인":3056,"저는</w>":3057,"하는지</w>":3058,"에서는</w>":3059,"TV":3060,"남자</w>":3061,"성우":3062,"영화보다</w>":3063,"탄탄":3064,"미친":3065,"이영화를</w>":3066,"좋아</w>":3067,"아닐":3068,"이하":3069,"볼만한</w>":3070,"던가</w>":3071,"바라":3072,"봤네요</w>":3073,"카메":3074,"OO</w>":3075,"렇게":3076,"다가":3077,"좋음</w>":3078,"했어요</w>":3079,"되는":3080,"100":3081,"한마디로</w>":3082,"만으로도</w>":3083,"겠지</w>":3084,"계속":3085,"존나</w>":3086,"말고</w>":3087,"시다</w>":3088,"어나":3089,"항상</w>":3090,"가지":3091,"약간</w>":3092,"어느":3093,"최고의":3094,"버리":3095,"보이는</w>":3096,"스의</w>":3097,"좀비":3098,"애니</w>":3099,"을텐데</w>":3100,"코메":3101,"한심":3102,"배우들":3103,"워요</w>":3104,"하니</w>":3105,"os":3106,"되지</w>":3107,"저도</w>":3108,"정이</w>":3109,"했습니다</w>":3110,"까요</w>":3111,"있어요</w>":3112,"그녀":3113,"어려":3114,"훌륭한</w>":3115,"충분히</w>":3116,"ㅠㅠㅠ</w>":3117,"되어":3118,"봤는데":3119,"ㅋㅋㅋㅋㅋ</w>":3120,"애니메이션":3121,"애들":3122,"에겐</w>":3123,"보는게</w>":3124,"나옴</w>":3125,"평점은</w>":3126,"우리나라":3127,"더욱</w>":3128,"식상":3129,"예요</w>":3130,"영화라</w>":3131,"안타까":3132,"같네요</w>":3133,"라고":3134,"나오고</w>":3135,"사랑을</w>":3136,"여서</w>":3137,"오늘":3138,"인다</w>":3139,"선택":3140,"얘기":3141,"헐리":3142,"처음부터</w>":3143,"긴장감</w>":3144,"관계":3145,"여주":3146,"이라니</w>":3147,"마무":3148,"흥행":3149,"알았는데</w>":3150,"일단</w>":3151,"good</w>":3152,"영화로":3153,"영화중에</w>":3154,"거야</w>":3155,"훈훈":3156,"흥미진":3157,"도록</w>":3158,"성룡":3159,"전형":3160,"했고</w>":3161,"모르고</w>":3162,"들아</w>":3163,"사는</w>":3164,"울었":3165,"그만</w>":3166,"서는</w>":3167,"자극":3168,"점수":3169,"해야</w>":3170,"애니메이션</w>":3171,"이영화는</w>":3172,"캐릭터</w>":3173,"주의":3174,"재미있는</w>":3175,"그림":3176,"또한</w>":3177,"립니다</w>":3178,"으면서</w>":3179,"있어":3180,"좋겠다</w>":3181,"가슴</w>":3182,"내는</w>":3183,"무조":3184,"안된다</w>":3185,"낭비":3186,"머니":3187,"아직</w>":3188,"이어":3189,"한거</w>":3190,"다시봐도</w>":3191,"아닌가</w>":3192,"어디서</w>":3193,"이냐</w>":3194,"오글거":3195,"스럽고</w>":3196,"사라":3197,"새로운</w>":3198,"알아":3199,"부분이</w>":3200,"대한민":3201,"님의</w>":3202,"알았다</w>":3203,"그랬":3204,"낫다</w>":3205,"생각하게</w>":3206,"아빠":3207,"영상</w>":3208,"말로</w>":3209,"맘에</w>":3210,"소중":3211,"이딴</w>":3212,"진행":3213,"크리스":3214,"영화에서</w>":3215,"감동이</w>":3216,"여전":3217,"유의</w>":3218,"이기":3219,"점점</w>":3220,"해준</w>":3221,"인간의</w>":3222,"시나리오</w>":3223,"나쁘":3224,"리얼":3225,"멍청":3226,"받았":3227,"애들</w>":3228,"진지":3229,"도는</w>":3230,"아저":3231,"보고나":3232,"멜로":3233,"범죄":3234,"알려":3235,"오히":3236,"물론</w>":3237,"순간":3238,"으며</w>":3239,"재밌는데</w>":3240,"고싶다</w>":3241,"지못":3242,"초등":3243,"지마라</w>":3244,"뭐가</w>":3245,"화면":3246,"깊은</w>":3247,"만의</w>":3248,"미안":3249,"신기":3250,"이것도</w>":3251,"이야기를</w>":3252,"감성":3253,"것같다</w>":3254,"공포</w>":3255,"을때":3256,"조차</w>":3257,"하자":3258,"주인공의</w>":3259,"몰입도</w>":3260,"그의</w>":3261,"먹먹":3262,"했으면</w>":3263,"감상":3264,"이따":3265,"이번":3266,"좋았어요</w>":3267,"네여</w>":3268,"배우의</w>":3269,"끝내":3270,"느꼈":3271,"되어</w>":3272,"참신":3273,"평점에</w>":3274,"따뜻한</w>":3275,"만점":3276,"이다":3277,"한듯</w>":3278,"그게</w>":3279,"독립":3280,"라니</w>":3281,"연기에</w>":3282,"오히려</w>":3283,"가볍":3284,"거다</w>":3285,"할때</w>":3286,"만들어</w>":3287,"엄청난</w>":3288,"걸작</w>":3289,"만족":3290,"설명":3291,"스케":3292,"주는":3293,"재미없는</w>":3294,"재밌었다</w>":3295,"결혼":3296,"말아":3297,"스를</w>":3298,"싫어":3299,"알게":3300,"중반":3301,"화이팅</w>":3302,"구성":3303,"먹고</w>":3304,"메세":3305,"하다":3306,"함과</w>":3307,"아까워</w>":3308,"대단한</w>":3309,"있습니다</w>":3310,"잊혀":3311,"잘생":3312,"어설프":3313,"인줄</w>":3314,"전달":3315,"한건</w>":3316,"나가":3317,"12":3318,"귀신":3319,"났다</w>":3320,"자꾸</w>":3321,"사람들":3322,"킬링타임용":3323,"봐야</w>":3324,"있네</w>":3325,"제로</w>":3326,"풀어":3327,"생각해":3328,"도저히</w>":3329,"15":3330,"눈물</w>":3331,"대의</w>":3332,"스터</w>":3333,"영원":3334,"즐겁":3335,"편이</w>":3336,"사건":3337,"액션도</w>":3338,"기만</w>":3339,"리의</w>":3340,"올리":3341,"미치":3342,"안됨</w>":3343,"이미</w>":3344,"황당":3345,"스타일":3346,"빨리</w>":3347,"전기":3348,"너무너무</w>":3349,"모습이</w>":3350,"시청률":3351,"프로그":3352,"혼자</w>":3353,"완벽한</w>":3354,"그만":3355,"바람":3356,"졸작":3357,"드라마가</w>":3358,"무조건</w>":3359,"그닥</w>":3360,"낭비</w>":3361,"놀라":3362,"돌려":3363,"려는</w>":3364,"리메이":3365,"스트</w>":3366,"오는</w>":3367,"원래</w>":3368,"댓글":3369,"웃음</w>":3370,"공포영화</w>":3371,"전부</w>":3372,"취향":3373,"영화이다</w>":3374,"억지로</w>":3375,"꿀잼</w>":3376,"믿고</w>":3377,"사가</w>":3378,"일까</w>":3379,"특유의</w>":3380,"전형적인</w>":3381,"속에서</w>":3382,"영웅":3383,"우연히</w>":3384,"진실":3385,"스토리에</w>":3386,"감독님</w>":3387,"예전에</w>":3388,"유명":3389,"화가</w>":3390,"못보":3391,"별점</w>":3392,"부모":3393,"스포":3394,"저런</w>":3395,"하지않":3396,"영화지만</w>":3397,"더럽게</w>":3398,"못하고</w>":3399,"못하는</w>":3400,"습니다":3401,"알겠":3402,"편집":3403,"재미없고</w>":3404,"낮은":3405,"복수":3406,"우울":3407,"흘러":3408,"아니면</w>":3409,"10년":3410,"이야기가</w>":3411,"넘어":3412,"누군":3413,"목소리":3414,"네이버</w>":3415,"말도":3416,"이렇게":3417,"아버지":3418,"평론가":3419,"더러":3420,"환상":3421,"재미있고</w>":3422,"지금도</w>":3423,"그렇고</w>":3424,"관심":3425,"노력":3426,"없어":3427,"주세요</w>":3428,"드라마는</w>":3429,"영화였습니다</w>":3430,"어렵":3431,"있나</w>":3432,"전설":3433,"중간</w>":3434,"드라마를</w>":3435,"말을</w>":3436,"삼류":3437,"자의</w>":3438,"해지":3439,"희망":3440,"영환":3441,"보고싶다</w>":3442,"걸까</w>":3443,"돈주고</w>":3444,"라는":3445,"억지</w>":3446,"전편":3447,"한편":3448,"님이</w>":3449,"데도</w>":3450,"들었":3451,"점수</w>":3452,"해피":3453,"처음으로</w>":3454,"보시길</w>":3455,"3류</w>":3456,"B급</w>":3457,"각본":3458,"같아</w>":3459,"같습니다</w>":3460,"스런</w>":3461,"였음</w>":3462,"엉망":3463,"죽는":3464,"줄거리":3465,"아까운":3466,"그런데</w>":3467,"가장":3468,"되었다</w>":3469,"뜬금":3470,"과는</w>":3471,"으면":3472,"이에요</w>":3473,"하다고</w>":3474,"유치하고</w>":3475,"아무것도</w>":3476,"경찰":3477,"봣는데</w>":3478,"중에서</w>":3479,"질질":3480,"내고</w>":3481,"시원":3482,"안맞":3483,"전문":3484,"하여</w>":3485,"한다는</w>":3486,"한국영화</w>":3487,"걸작":3488,"게임":3489,"그럴":3490,"미화":3491,"적당":3492,"마음을</w>":3493,"명작이다</w>":3494,"바보":3495,"사실</w>":3496,"잘봤습니다</w>":3497,"할까</w>":3498,"여자가</w>":3499,"별로다</w>":3500,"더라":3501,"봐도":3502,"아주":3503,"하지도</w>":3504,"OOO</w>":3505,"th":3506,"돈이</w>":3507,"드러":3508,"보니까</w>":3509,"안나오":3510,"원작</w>":3511,"이연":3512,"있다는</w>":3513,"저예":3514,"모습을</w>":3515,"기도":3516,"노출":3517,"미친</w>":3518,"새끼":3519,"완성":3520,"죽음":3521,"허술":3522,"홍콩":3523,"나머":3524,"는가</w>":3525,"마치</w>":3526,"보인다</w>":3527,"소녀":3528,"천재":3529,"학교</w>":3530,"연기자":3531,"재미없어</w>":3532,"2점":3533,"들고</w>":3534,"하면서도</w>":3535,"좋았습니다</w>":3536,"보고나서</w>":3537,"으로는</w>":3538,"최악이다</w>":3539,"연출이</w>":3540,"짜증나":3541,"거지":3542,"나를</w>":3543,"높은":3544,"만이</w>":3545,"주의</w>":3546,"아니지만</w>":3547,"보지마세요</w>":3548,"드립니다</w>":3549,"랄까</w>":3550,"스크":3551,"어떤":3552,"이미":3553,"사람을</w>":3554,"기대하고</w>":3555,"있지</w>":3556,"절대":3557,"하세요</w>":3558,"cg":3559,"리티":3560,"피해":3561,"만들었다</w>":3562,"좋았음</w>":3563,"흥미진진":3564,"OS":3565,"촬영":3566,"아이들이</w>":3567,"극장판":3568,"는듯</w>":3569,"조연":3570,"하지":3571,"행동":3572,"로맨스":3573,"년에</w>":3574,"됩니다</w>":3575,"싸이":3576,"않음</w>":3577,"우는</w>":3578,"움이</w>":3579,"이해</w>":3580,"있네요</w>":3581,"지말고</w>":3582,"ㅇㅇ</w>":3583,"강추":3584,"그려":3585,"남기":3586,"느낄</w>":3587,"드가</w>":3588,"뭔지</w>":3589,"세가</w>":3590,"소재</w>":3591,"어느</w>":3592,"감사합니다</w>":3593,"in":3594,"간의</w>":3595,"삶을</w>":3596,"적이</w>":3597,"내용을</w>":3598,"너무나도</w>":3599,"필요없다</w>":3600,"더군요</w>":3601,"동화":3602,"있다면</w>":3603,"전작":3604,"철학":3605,"한다면</w>":3606,"좋았고</w>":3607,"이런걸</w>":3608,"재밌었어요</w>":3609,"er":3610,"거리</w>":3611,"괜히</w>":3612,"두고</w>":3613,"봤으면</w>":3614,"안에</w>":3615,"이젠</w>":3616,"영화냐</w>":3617,"어릴때</w>":3618,"불륜":3619,"엔딩</w>":3620,"안되고</w>":3621,"무엇보다</w>":3622,"걸로</w>":3623,"꿀잼":3624,"메시":3625,"성장":3626,"하다가</w>":3627,"만들지</w>":3628,"드럽":3629,"시간을</w>":3630,"봅니다</w>":3631,"선생":3632,"싫다</w>":3633,"심심":3634,"왠만":3635,"지금까지</w>":3636,"소재는</w>":3637,"아는</w>":3638,"아도</w>":3639,"와닿":3640,"의도":3641,"아닌데</w>":3642,"캐스팅</w>":3643,"왜이리</w>":3644,"10</w>":3645,"다행":3646,"후반부":3647,"화려한</w>":3648,"고생":3649,"데이":3650,"때는</w>":3651,"미래":3652,"연기와</w>":3653,"비슷한</w>":3654,"눈이</w>":3655,"동생":3656,"버렸다</w>":3657,"일어":3658,"스토리를</w>":3659,"이런게</w>":3660,"그래픽":3661,"지금봐도</w>":3662,"보기엔</w>":3663,"B급":3664,"리다</w>":3665,"성공":3666,"없지만</w>":3667,"유머":3668,"로맨스</w>":3669,"나와</w>":3670,"모자":3671,"문화":3672,"분들":3673,"빼고</w>":3674,"떨어지":3675,"같아서</w>":3676,"그라":3677,"남는다</w>":3678,"애들이</w>":3679,"이리</w>":3680,"자유":3681,"좋았는데</w>":3682,"나왔으면</w>":3683,"감을</w>":3684,"거기":3685,"끄럽":3686,"나쁜":3687,"리도</w>":3688,"빠지":3689,"웃긴":3690,"의외":3691,"유치한</w>":3692,"소재를</w>":3693,"네이버":3694,"전체적으로</w>":3695,"뮤지":3696,"어쩔":3697,"죽이":3698,"는것":3699,"식이</w>":3700,"생각없이</w>":3701,"하는거</w>":3702,"모르는</w>":3703,"진부한</w>":3704,"2점</w>":3705,"남아":3706,"버렸":3707,"뿐이다</w>":3708,"스티":3709,"앞으로</w>":3710,"이후</w>":3711,"스토리와</w>":3712,"느끼게</w>":3713,"자신의</w>":3714,"능력":3715,"니깐</w>":3716,"아놔</w>":3717,"올라":3718,"자체</w>":3719,"했던":3720,"슬프다</w>":3721,"확실히</w>":3722,"부분</w>":3723,"소년":3724,"이영화가</w>":3725,"높은</w>":3726,"발연기</w>":3727,"분에</w>":3728,"하긴</w>":3729,"있었던</w>":3730,"끝나고</w>":3731,"끌어":3732,"나름":3733,"봤다가</w>":3734,"시길</w>":3735,"씨가</w>":3736,"여성":3737,"역할":3738,"그런가</w>":3739,"다소</w>":3740,"데요</w>":3741,"러브":3742,"로는</w>":3743,"순간</w>":3744,"였는데</w>":3745,"왠지</w>":3746,"대단하다</w>":3747,"어렸을때</w>":3748,"ㄷㄷ":3749,"느낄":3750,"볼때마다</w>":3751,"자는</w>":3752,"사람의</w>":3753,"하는거":3754,"구성</w>":3755,"유일":3756,"하루":3757,"무시":3758,"봤었는데</w>":3759,"식으로</w>":3760,"싶은":3761,"외국":3762,"정치":3763,"액션은</w>":3764,"처음이다</w>":3765,"다운</w>":3766,"안보":3767,"이지":3768,"있을</w>":3769,"짜증</w>":3770,"재미있음</w>":3771,"반전이</w>":3772,"나타":3773,"분들은</w>":3774,"서도</w>":3775,"와서</w>":3776,"있으면</w>":3777,"작가</w>":3778,"감동적이고</w>":3779,"40":3780,"ㅅㅂ</w>":3781,"서야</w>":3782,"시켜":3783,"인은</w>":3784,"청춘":3785,"이런거</w>":3786,"액션이</w>":3787,"매력적인</w>":3788,"세상에</w>":3789,"SF":3790,"고민":3791,"고도</w>":3792,"어야":3793,"여주인공</w>":3794,"연예":3795,"왜이렇게</w>":3796,"할듯</w>":3797,"음악이</w>":3798,"아닐까</w>":3799,"대작":3800,"볼수</w>":3801,"이란":3802,"지루</w>":3803,"ost":3804,"뻔한":3805,"웠던</w>":3806,"이래":3807,"한테":3808,"혼자":3809,"생각나":3810,"생각한다</w>":3811,"추천합니다</w>":3812,"인상깊":3813,"나만</w>":3814,"노래</w>":3815,"먼저</w>":3816,"볼수록</w>":3817,"인정":3818,"힘든</w>":3819,"영화보고</w>":3820,"아쉬운</w>":3821,"여전히</w>":3822,"8점":3823,"시고</w>":3824,"심히</w>":3825,"중의</w>":3826,"프리":3827,"이런영화</w>":3828,"내생":3829,"눈을</w>":3830,"실패":3831,"을수":3832,"통해</w>":3833,"0점":3834,"기의</w>":3835,"미소":3836,"분이</w>":3837,"않았다</w>":3838,"특별":3839,"하셨":3840,"허접한</w>":3841,"역시나</w>":3842,"모습</w>":3843,"병맛":3844,"어린</w>":3845,"없나</w>":3846,"옛날</w>":3847,"움을</w>":3848,"이를</w>":3849,"시간에</w>":3850,"tv":3851,"가득":3852,"같고</w>":3853,"슬픈</w>":3854,"이며</w>":3855,"좋은영화</w>":3856,"흥미롭":3857,"이유가</w>":3858,"예고편":3859,"7점":3860,"과연</w>":3861,"설정</w>":3862,"알고":3863,"없을":3864,"음악도</w>":3865,"동물":3866,"마라</w>":3867,"만화</w>":3868,"슬픈":3869,"하다니</w>":3870,"사랑이</w>":3871,"보여준</w>":3872,"3류":3873,"굳이</w>":3874,"그저":3875,"그들의</w>":3876,"내요</w>":3877,"되게</w>":3878,"상을</w>":3879,"연애":3880,"웃겨":3881,"자를</w>":3882,"필요없는</w>":3883,"아름답고</w>":3884,"소름돋":3885,"그럭":3886,"그리</w>":3887,"그래</w>":3888,"버리고</w>":3889,"비가</w>":3890,"슈퍼":3891,"스는</w>":3892,"이걸":3893,"인을</w>":3894,"정을</w>":3895,"그럭저":3896,"심리":3897,"언제</w>":3898,"영화를":3899,"겠네</w>":3900,"사기":3901,"포장":3902,"재미를</w>":3903,"이유는</w>":3904,"소름끼":3905,"굿굿</w>":3906,"산만":3907,"참고</w>":3908,"알수":3909,"에휴</w>":3910,"종교":3911,"효과":3912,"생각합니다</w>":3913,"만들고</w>":3914,"깔끔":3915,"만나":3916,"없는데</w>":3917,"절한</w>":3918,"져서</w>":3919,"지난</w>":3920,"느껴지는</w>":3921,"유쾌한</w>":3922,"다큐멘":3923,"가가</w>":3924,"맞는</w>":3925,"설레":3926,"였습니다</w>":3927,"치게</w>":3928,"재밌습니다</w>":3929,"전기세가</w>":3930,"류의</w>":3931,"성은</w>":3932,"오락":3933,"평점이":3934,"스럽게</w>":3935,"부족한</w>":3936,"티비에서</w>":3937,"더라도</w>":3938,"들어</w>":3939,"맞추":3940,"아무</w>":3941,"재밌었는데</w>":3942,"귀엽고</w>":3943,"케이블":3944,"로그":3945,"만으로</w>":3946,"멋진":3947,"받고</w>":3948,"빨리":3949,"아니었":3950,"에서의</w>":3951,"개연성</w>":3952,"내려":3953,"던지</w>":3954,"후속":3955,"좋아서</w>":3956,"기대를</w>":3957,"만들어진</w>":3958,"아름답다</w>":3959,"0점</w>":3960,"기고</w>":3961,"별점":3962,"삼류</w>":3963,"심을</w>":3964,"쓰래":3965,"하던</w>":3966,"80년대</w>":3967,"90년대</w>":3968,"난해":3969,"다지</w>":3970,"아련":3971,"오그라":3972,"웃겼":3973,"장이</w>":3974,"태어":3975,"진심으로</w>":3976,"놀랍":3977,"더만</w>":3978,"들만</w>":3979,"르고</w>":3980,"짱짱":3981,"나오는":3982,"볼만함</w>":3983,"연기력이</w>":3984,"가를</w>":3985,"가진</w>":3986,"무지</w>":3987,"쓸데":3988,"한다고</w>":3989,"매력이</w>":3990,"0년대":3991,"독특한</w>":3992,"거짓":3993,"국민":3994,"그럼</w>":3995,"김기":3996,"미스":3997,"정서":3998,"지겹":3999,"했는지</w>":4000,"영화가":4001,"순수한</w>":4002,"여주인공":4003,"지루해</w>":4004,"판타지":4005,"나라</w>":4006,"되네요</w>":4007,"드리":4008,"사극":4009,"아침":4010,"한다":4011,"보다도</w>":4012,"결론":4013,"과거":4014,"기엔</w>":4015,"까지는</w>":4016,"놓은</w>":4017,"마저</w>":4018,"불쾌":4019,"인터":4020,"좋습니다</w>":4021,"제목이</w>":4022,"이정도면</w>":4023,"3점</w>":4024,"9점</w>":4025,"그립":4026,"느와":4027,"발이</w>":4028,"보면":4029,"소장":4030,"소한</w>":4031,"아오</w>":4032,"알바</w>":4033,"역대</w>":4034,"자막":4035,"트가</w>":4036,"현실을</w>":4037,"되서</w>":4038,"듯이</w>":4039,"비주":4040,"어라</w>":4041,"이루":4042,"찍었":4043,"호러":4044,"이라서</w>":4045,"재미없네</w>":4046,"정말로</w>":4047,"떨어지는</w>":4048,"분위기</w>":4049,"평범한</w>":4050,"괴물":4051,"덕분에</w>":4052,"디즈":4053,"상처":4054,"섹시":4055,"싸구":4056,"의심":4057,"이상한</w>":4058,"아닌듯</w>":4059,"수준이</w>":4060,"이후로</w>":4061,"그럭저럭</w>":4062,"가까":4063,"로버":4064,"몰라도</w>":4065,"심각":4066,"에이":4067,"으론</w>":4068,"전투":4069,"제목</w>":4070,"쩐다</w>":4071,"페이":4072,"감동과</w>":4073,"사랑에</w>":4074,"장면에서</w>":4075,"우리가</w>":4076,"인생의</w>":4077,"다큐멘터":4078,"게다가</w>":4079,"구하고</w>":4080,"끄러":4081,"낮아서</w>":4082,"년도</w>":4083,"밑에</w>":4084,"보러":4085,"없지</w>":4086,"을수</w>":4087,"질질</w>":4088,"영화에요</w>":4089,"어이없는</w>":4090,"어색한</w>":4091,"그때":4092,"들었다</w>":4093,"리뷰":4094,"존나":4095,"하이":4096,"히어":4097,"만든다</w>":4098,"에게는</w>":4099,"판타지</w>":4100,"or":4101,"거냐</w>":4102,"망작":4103,"못해</w>":4104,"어지는</w>":4105,"없을</w>":4106,"예전":4107,"오버":4108,"자고</w>":4109,"졸라</w>":4110,"줘서</w>":4111,"타임</w>":4112,"현실</w>":4113,"재미있게":4114,"는거야</w>":4115,"재밌었음</w>":4116,"시대를</w>":4117,"슬프고</w>":4118,"더빙</w>":4119,"분노":4120,"수는</w>":4121,"줘야":4122,"흐름":4123,"지루해서</w>":4124,"지금은</w>":4125,"연출도</w>":4126,"제작진":4127,"귀여운</w>":4128,"멋지다</w>":4129,"감탄":4130,"니가</w>":4131,"비추</w>":4132,"스스":4133,"시시":4134,"아아":4135,"주기도</w>":4136,"한것":4137,"소재로</w>":4138,"마음</w>":4139,"무협":4140,"서로</w>":4141,"시선":4142,"아줌":4143,"에만</w>":4144,"오랫":4145,"지않고</w>":4146,"공감이</w>":4147,"an":4148,"tv</w>":4149,"고등":4150,"까진</w>":4151,"나에게</w>":4152,"년도":4153,"놀랐":4154,"대는</w>":4155,"로도</w>":4156,"만점</w>":4157,"많다</w>":4158,"망작</w>":4159,"살짝</w>":4160,"오빠":4161,"외계":4162,"우드</w>":4163,"저질":4164,"주고":4165,"편은</w>":4166,"사랑하는</w>":4167,"정도의</w>":4168,"소재가</w>":4169,"무서운":4170,"갑니다</w>":4171,"광고":4172,"년전</w>":4173,"명의</w>":4174,"블랙":4175,"아나</w>":4176,"역겨":4177,"그것":4178,"그다지</w>":4179,"사를</w>":4180,"생활":4181,"성애":4182,"알게</w>":4183,"이의</w>":4184,"이도</w>":4185,"조잡":4186,"폭력":4187,"처음엔</w>":4188,"현실적인</w>":4189,"중간중간</w>":4190,"가족</w>":4191,"낮은</w>":4192,"먹는</w>":4193,"보내":4194,"빼고는</w>":4195,"어가</w>":4196,"일뿐</w>":4197,"저렇게</w>":4198,"재미있네요</w>":4199,"인생을</w>":4200,"그지":4201,"무비</w>":4202,"아내":4203,"여기</w>":4204,"인간</w>":4205,"최근":4206,"희생":4207,"좋아하는데</w>":4208,"몰입도":4209,"이쁘고</w>":4210,"높다</w>":4211,"드의</w>":4212,"른다</w>":4213,"바뀌":4214,"통쾌":4215,"배우들도</w>":4216,"있었는데</w>":4217,"웃기고</w>":4218,"신선한</w>":4219,"기분이</w>":4220,"추억의</w>":4221,"9점":4222,"각본</w>":4223,"강렬":4224,"와는</w>":4225,"풋풋":4226,"지루하지</w>":4227,"작품이</w>":4228,"자체는</w>":4229,"비디오</w>":4230,"별루":4231,"보며</w>":4232,"봐요</w>":4233,"애들은</w>":4234,"없어요</w>":4235,"에피":4236,"웃김</w>":4237,"형편":4238,"가끔</w>":4239,"매력</w>":4240,"새벽":4241,"않게</w>":4242,"용서":4243,"필요</w>":4244,"홍보":4245,"모르게</w>":4246,"아이가</w>":4247,"결말도</w>":4248,"보고싶은</w>":4249,"가볍게</w>":4250,"99":4251,"남겨":4252,"느낀":4253,"만들</w>":4254,"본방":4255,"봤던":4256,"씁쓸":4257,"한지</w>":4258,"사랑과</w>":4259,"는거지</w>":4260,"다는걸</w>":4261,"리메이크":4262,"er</w>":4263,"같았":4264,"넘치는</w>":4265,"뻔하고</w>":4266,"소름</w>":4267,"죽여":4268,"참고":4269,"감동적":4270,"몰입이</w>":4271,"반전도</w>":4272,"어떻게":4273,"봐야할</w>":4274,"프랑스":4275,"대한민국</w>":4276,"기본":4277,"깨닫":4278,"남을</w>":4279,"려면</w>":4280,"많았":4281,"받은</w>":4282,"발연기":4283,"본다면</w>":4284,"시트":4285,"쓰고</w>":4286,"씬은</w>":4287,"암튼</w>":4288,"여주</w>":4289,"작은</w>":4290,"전쟁</w>":4291,"채널":4292,"챙겨":4293,"초반</w>":4294,"했으나</w>":4295,"작가가</w>":4296,"이건뭐</w>":4297,"더라구요</w>":4298,"들에</w>":4299,"섬세":4300,"여행":4301,"역대":4302,"이니</w>":4303,"재밌어</w>":4304,"결말은</w>":4305,"코메디</w>":4306,"까지도</w>":4307,"리에</w>":4308,"무언":4309,"쉽게</w>":4310,"신경":4311,"점수를</w>":4312,"하다는</w>":4313,"재미잇":4314,"하고자</w>":4315,"짜증나는</w>":4316,"그렇다고</w>":4317,"마이너":4318,"견자":4319,"결국":4320,"군대":4321,"돋보":4322,"맘에":4323,"반성":4324,"발전":4325,"성인":4326,"씨의</w>":4327,"않아</w>":4328,"오래</w>":4329,"지구":4330,"지마</w>":4331,"가져":4332,"개봉</w>":4333,"기로</w>":4334,"는건지</w>":4335,"미국</w>":4336,"삶의</w>":4337,"시대</w>":4338,"신이</w>":4339,"이뻐":4340,"지요</w>":4341,"크게</w>":4342,"평생</w>":4343,"표정":4344,"지루함":4345,"재미있었다</w>":4346,"사랑의</w>":4347,"작품을</w>":4348,"초반에</w>":4349,"코메디":4350,"♥♥</w>":4351,"검색":4352,"끝까지":4353,"니콜":4354,"많고</w>":4355,"본게</w>":4356,"산으로</w>":4357,"입장":4358,"집에서</w>":4359,"한계":4360,"영화는":4361,"ㅋㅋㅋㅋㅋㅋ</w>":4362,"사랑은</w>":4363,"대사가</w>":4364,"OOO기</w>":4365,"겟다</w>":4366,"고양":4367,"받아서</w>":4368,"성에</w>":4369,"우와</w>":4370,"이하</w>":4371,"존경":4372,"하자</w>":4373,"쓰레기다</w>":4374,"로맨틱":4375,"언제나</w>":4376,"공부":4377,"남녀":4378,"싶네요</w>":4379,"없다":4380,"온다</w>":4381,"장애":4382,"저런":4383,"모든게</w>":4384,"기만":4385,"느라</w>":4386,"대체":4387,"분명":4388,"아들":4389,"엄마</w>":4390,"연결":4391,"전부":4392,"포기":4393,"했네</w>":4394,"재밋다</w>":4395,"느낌을</w>":4396,"등장인물":4397,"OST":4398,"공감</w>":4399,"나중에</w>":4400,"는구나</w>":4401,"대표":4402,"대충</w>":4403,"빠진</w>":4404,"세요":4405,"없습니다</w>":4406,"었습니다</w>":4407,"일상":4408,"잘만든</w>":4409,"제대로":4410,"죄다</w>":4411,"눈물을</w>":4412,"무섭다</w>":4413,"킬링타임용</w>":4414,"프랑스</w>":4415,"싸이코":4416,"떠나서</w>":4417,"불구하고</w>":4418,"였던</w>":4419,"올려":4420,"웠음</w>":4421,"이용":4422,"있던</w>":4423,"는데도</w>":4424,"13":4425,"는걸</w>":4426,"단지</w>":4427,"둘다</w>":4428,"떠오":4429,"목소리</w>":4430,"원이</w>":4431,"친다</w>":4432,"특수":4433,"평이</w>":4434,"함께":4435,"힐링":4436,"생각하고</w>":4437,"최고입니다</w>":4438,"하나가</w>":4439,"남자의</w>":4440,"뛰어난</w>":4441,"에피소":4442,"3점":4443,"5점":4444,"ㅇㅇ":4445,"감명":4446,"같이":4447,"마세요</w>":4448,"보았다</w>":4449,"생겼":4450,"않지만</w>":4451,"였어요</w>":4452,"인해</w>":4453,"포인":4454,"했다":4455,"영화인듯</w>":4456,"어이가</w>":4457,"글쎄</w>":4458,"기술":4459,"려고":4460,"못했다</w>":4461,"보자</w>":4462,"북한":4463,"비극":4464,"었어요</w>":4465,"열심히</w>":4466,"이자</w>":4467,"잘하고</w>":4468,"전혀":4469,"제일":4470,"좀더</w>":4471,"클레":4472,"타이":4473,"화가":4474,"공포영화":4475,"무엇을</w>":4476,"드럽게</w>":4477,"ar":4478,"거슬":4479,"다양":4480,"대가</w>":4481,"러닝":4482,"멜로</w>":4483,"본영화</w>":4484,"시각":4485,"식의</w>":4486,"전반":4487,"표절":4488,"프레":4489,"하려고</w>":4490,"보지마라</w>":4491,"단순한</w>":4492,"게이":4493,"기독":4494,"나올</w>":4495,"냐고</w>":4496,"더불":4497,"반개도</w>":4498,"싸우":4499,"의문":4500,"테러":4501,"판에</w>":4502,"하기만</w>":4503,"하려는</w>":4504,"4점</w>":4505,"거면</w>":4506,"것들</w>":4507,"내내":4508,"누구나</w>":4509,"는것도</w>":4510,"별루</w>":4511,"복잡":4512,"않을</w>":4513,"어처":4514,"어휴</w>":4515,"적은</w>":4516,"조용":4517,"테이":4518,"좋아하는":4519,"볼만하다</w>":4520,"정신병":4521,"딱히</w>":4522,"상업":4523,"슬퍼":4524,"실제</w>":4525,"않나</w>":4526,"없게</w>":4527,"조폭":4528,"투자":4529,"했다는</w>":4530,"생각이":4531,"잔잔하고</w>":4532,"이제야</w>":4533,"과의</w>":4534,"그때</w>":4535,"그걸</w>":4536,"란다</w>":4537,"매니":4538,"보길</w>":4539,"아마":4540,"여배우</w>":4541,"음을</w>":4542,"인도":4543,"좋게</w>":4544,"틀어":4545,"남자가</w>":4546,"영화였어요</w>":4547,"끼리</w>":4548,"다이":4549,"더이상</w>":4550,"묘사":4551,"볼만</w>":4552,"심이</w>":4553,"지켜":4554,"지의</w>":4555,"현재":4556,"영화네</w>":4557,"영상미</w>":4558,"잼있게</w>":4559,"엉성한</w>":4560,"프로그램":4561,"어처구":4562,"0점은</w>":4563,"거같다</w>":4564,"겁나</w>":4565,"교육":4566,"내인생</w>":4567,"더라면</w>":4568,"때가</w>":4569,"랍니다</w>":4570,"민망":4571,"봤더니</w>":4572,"속의</w>":4573,"슬펐":4574,"슬픔":4575,"줄이야</w>":4576,"찌질":4577,"찝찝":4578,"나오면</w>":4579,"ㅠㅠㅠㅠ</w>":4580,"극장판</w>":4581,"오랜만":4582,"모르겠고</w>":4583,"의미를</w>":4584,"11":4585,"고마":4586,"되면</w>":4587,"바꿔":4588,"번째</w>":4589,"보려고</w>":4590,"식을</w>":4591,"인거</w>":4592,"일을</w>":4593,"주고싶":4594,"히는</w>":4595,"하나의</w>":4596,"음악과</w>":4597,"스트레":4598,"가면</w>":4599,"기발":4600,"나네요</w>":4601,"못함</w>":4602,"일부":4603,"재밌어":4604,"재미없어요</w>":4605,"작품은</w>":4606,"수준의</w>":4607,"계의</w>":4608,"깊게</w>":4609,"남주":4610,"못하":4611,"분은</w>":4612,"새롭":4613,"시작</w>":4614,"악당":4615,"재난":4616,"주연</w>":4617,"집니다</w>":4618,"했네요</w>":4619,"현대":4620,"좋아해서</w>":4621,"작품이다</w>":4622,"연출력":4623,"개연성":4624,"상상력":4625,"눈에</w>":4626,"려다</w>":4627,"뭉클":4628,"받는</w>":4629,"부족</w>":4630,"세월":4631,"수의</w>":4632,"와우</w>":4633,"이정":4634,"제이":4635,"조선":4636,"크레":4637,"해리":4638,"재밌다":4639,"배우를</w>":4640,"이런영화가</w>":4641,"하기도</w>":4642,"따뜻해지는</w>":4643,"분위기":4644,"긴장감도</w>":4645,"보고나면</w>":4646,"8점</w>":4647,"고통":4648,"과장":4649,"대중":4650,"묘한</w>":4651,"밋밋":4652,"살다</w>":4653,"아닙":4654,"움직":4655,"인가요</w>":4656,"있는지</w>":4657,"지겨":4658,"하늘":4659,"기대했는데</w>":4660,"있었지만</w>":4661,"전개도</w>":4662,"신선하고</w>":4663,"해야지</w>":4664,"웃음이</w>":4665,"안타깝다</w>":4666,"해피엔딩":4667,"겁니다</w>":4668,"고요</w>":4669,"벌써</w>":4670,"없다는</w>":4671,"은영화</w>":4672,"포르":4673,"허접</w>":4674,"흔한</w>":4675,"정도는</w>":4676,"으로서</w>":4677,"재미있었어요</w>":4678,"평론가</w>":4679,"옛날에</w>":4680,"몇번을</w>":4681,"더불어</w>":4682,"es":4683,"기억</w>":4684,"때까지</w>":4685,"떠나":4686,"루즈":4687,"실제":4688,"악역":4689,"어머니":4690,"은듯</w>":4691,"좋지만</w>":4692,"퀄리티":4693,"내용인지</w>":4694,"좋았던</w>":4695,"시대에</w>":4696,"힘들다</w>":4697,"어릴적</w>":4698,"다큐</w>":4699,"무비":4700,"얼굴</w>":4701,"클라":4702,"재밌네</w>":4703,"사람들의</w>":4704,"표현한</w>":4705,"왜이래</w>":4706,"탄탄한</w>":4707,"놈들</w>":4708,"도아니고</w>":4709,"레전":4710,"말하고</w>":4711,"바이":4712,"반복":4713,"봐주":4714,"싶었":4715,"아픈</w>":4716,"안가":4717,"카리스":4718,"생각으로</w>":4719,"무서운</w>":4720,"의외로</w>":4721,"50":4722,"경험":4723,"만을</w>":4724,"밖에":4725,"시에</w>":4726,"안보고</w>":4727,"왜케</w>":4728,"입니다":4729,"한가</w>":4730,"함에</w>":4731,"사랑스러운</w>":4732,"시간낭비</w>":4733,"아깝지</w>":4734,"짜증난다</w>":4735,"감정을</w>":4736,"왠만하면</w>":4737,"개판":4738,"거임</w>":4739,"관한</w>":4740,"눈빛":4741,"로만</w>":4742,"몸매":4743,"무리":4744,"박진":4745,"생생":4746,"생애</w>":4747,"성룡</w>":4748,"애가</w>":4749,"울었다</w>":4750,"짱짱</w>":4751,"하는건</w>":4752,"아이들</w>":4753,"이상의</w>":4754,"재밋게":4755,"라이</w>":4756,"못한다</w>":4757,"바꾸":4758,"베이":4759,"분명</w>":4760,"주성":4761,"했을</w>":4762,"재미가":4763,"장면도</w>":4764,"지않는</w>":4765,"만들어도</w>":4766,"아쉽네요</w>":4767,"어린이":4768,"보았습니다</w>":4769,"고전":4770,"망쳐":4771,"살다":4772,"이민":4773,"쵝오</w>":4774,"커플":4775,"패러":4776,"하라</w>":4777,"생각나는</w>":4778,"이거보고</w>":4779,"이쁘다</w>":4780,"대한민국":4781,"6점":4782,"끝날":4783,"당한</w>":4784,"머니</w>":4785,"정우":4786,"줍니다</w>":4787,"책임":4788,"치밀":4789,"지루했다</w>":4790,"시간가는":4791,"그렇지</w>":4792,"느껴지":4793,"로맨틱</w>":4794,"연기력도</w>":4795,"겨울":4796,"따위":4797,"때우":4798,"세계</w>":4799,"앞으로도</w>":4800,"어리":4801,"우주":4802,"자살":4803,"져요</w>":4804,"해석":4805,"ㅋㅋㅋㅋㅋㅋㅋ</w>":4806,"너무너무":4807,"ov":4808,"긴한데</w>":4809,"박수를</w>":4810,"보네</w>":4811,"인내":4812,"편견":4813,"포스터</w>":4814,"주인공은</w>":4815,"다시한번</w>":4816,"연출력</w>":4817,"모르겠지만</w>":4818,"크리스마":4819,"것에</w>":4820,"깨달":4821,"꿈을</w>":4822,"달달":4823,"따라</w>":4824,"미쳤":4825,"빼면</w>":4826,"아류":4827,"영혼":4828,"이정도</w>":4829,"책을</w>":4830,"좋았으나</w>":4831,"아깝고</w>":4832,"이해가":4833,"필요한</w>":4834,"그렇다</w>":4835,"잊혀지지</w>":4836,"결과":4837,"나쁜</w>":4838,"듯하다</w>":4839,"리게</w>":4840,"병맛</w>":4841,"부르":4842,"아픔":4843,"안쓰":4844,"외모":4845,"응원":4846,"이소":4847,"저질</w>":4848,"제시":4849,"했나</w>":4850,"10자</w>":4851,"좋았지만</w>":4852,"우리는</w>":4853,"이유를</w>":4854,"시키는</w>":4855,"가벼":4856,"것만</w>":4857,"뒤로</w>":4858,"맨날</w>":4859,"머리</w>":4860,"면에서</w>":4861,"물을</w>":4862,"보긴</w>":4863,"분들이</w>":4864,"빵터":4865,"웃겨</w>":4866,"일반":4867,"정의":4868,"배우도</w>":4869,"나오지</w>":4870,"최악의":4871,"인간이</w>":4872,"자신이</w>":4873,"해주세요</w>":4874,"죽는줄</w>":4875,"그것도</w>":4876,"나는":4877,"노답</w>":4878,"대화":4879,"씬이</w>":4880,"울고</w>":4881,"정상":4882,"정체":4883,"주변":4884,"나오네</w>":4885,"원작의</w>":4886,"봐야지</w>":4887,"캐릭터가</w>":4888,"완전히</w>":4889,"없는영화</w>":4890,"없었던</w>":4891,"여기서</w>":4892,"카메라":4893,"로의</w>":4894,"믿고":4895,"비판":4896,"어제</w>":4897,"있다":4898,"잘어울":4899,"잼잇":4900,"했다고</w>":4901,"현재</w>":4902,"호가</w>":4903,"영화와</w>":4904,"재미와</w>":4905,"보여줬":4906,"하기엔</w>":4907,"느껴진다</w>":4908,"출연진":4909,"학교에서</w>":4910,"가치가</w>":4911,"만큼은</w>":4912,"즐겁게</w>":4913,"김수":4914,"도안":4915,"도를</w>":4916,"멋있다</w>":4917,"볼거리":4918,"상관":4919,"새로":4920,"셔서</w>":4921,"잡고</w>":4922,"조작":4923,"했을까</w>":4924,"연기잘":4925,"아니야</w>":4926,"우리의</w>":4927,"유쾌하고</w>":4928,"지도않고</w>":4929,"bb":4930,"감도</w>":4931,"감히</w>":4932,"개뿔</w>":4933,"김민":4934,"명이</w>":4935,"불러":4936,"불가</w>":4937,"아오":4938,"아냐</w>":4939,"점에서</w>":4940,"조절":4941,"죽이고</w>":4942,"짜임":4943,"하길래</w>":4944,"다시는</w>":4945,"지않은</w>":4946,"무섭지도</w>":4947,"21":4948,"같아":4949,"거리는</w>":4950,"기가":4951,"리는":4952,"방법":4953,"사고":4954,"사의</w>":4955,"살려":4956,"아마</w>":4957,"예쁜</w>":4958,"있으":4959,"참으로</w>":4960,"형님</w>":4961,"생각함</w>":4962,"시간낭비":4963,"하나로</w>":4964,"흥미로":4965,"좋겠어요</w>":4966,"장르가</w>":4967,"스케일":4968,"저예산</w>":4969,"본방사":4970,"ㄷㄷㄷ</w>":4971,"ㅉㅉㅉ</w>":4972,"달라":4973,"듣고</w>":4974,"빌려":4975,"아역":4976,"역겹":4977,"프로</w>":4978,"했었":4979,"힘든":4980,"배우는</w>":4981,"10분":4982,"정도가</w>":4983,"이상은</w>":4984,"이었음</w>":4985,"모르겠음</w>":4986,"시청률</w>":4987,"싸구려</w>":4988,"3편":4989,"4점":4990,"나이</w>":4991,"되는데</w>":4992,"때도</w>":4993,"물이</w>":4994,"브루":4995,"어찌":4996,"오로":4997,"우려":4998,"자나</w>":4999,"했어</w>":5000,"지루하게</w>":5001,"아이돌":5002,"유치하다</w>":5003,"말이필요":5004,"어려운</w>":5005,"DV":5006,"거운</w>":5007,"디테":5008,"버림</w>":5009,"줄거리</w>":5010,"친구</w>":5011,"펑펑</w>":5012,"평가</w>":5013,"하하</w>":5014,"하지마라</w>":5015,"해진다</w>":5016,"평점보고</w>":5017,"가슴에</w>":5018,"잼있어요</w>":5019,"자신을</w>":5020,"아버지</w>":5021,"소설을</w>":5022,"다음</w>":5023,"때부터</w>":5024,"방금</w>":5025,"비하면</w>":5026,"사진":5027,"심하게</w>":5028,"얘기</w>":5029,"이였다</w>":5030,"있구나</w>":5031,"좋을":5032,"쳐서</w>":5033,"하지마":5034,"후에</w>":5035,"스타일</w>":5036,"느끼는</w>":5037,"답답하고</w>":5038,"199":5039,"나도":5040,"류승":5041,"리아":5042,"미가</w>":5043,"블록":5044,"설득":5045,"세련":5046,"손발이</w>":5047,"숨겨":5048,"시걸":5049,"심지":5050,"악마":5051,"유치</w>":5052,"잘만들었":5053,"찍은</w>":5054,"특이":5055,"영화나</w>":5056,"감동의</w>":5057,"액션영화</w>":5058,"장면을</w>":5059,"현실적이":5060,"하고싶":5061,"짜증나</w>":5062,"the</w>":5063,"3D":5064,"거라</w>":5065,"높아</w>":5066,"단연</w>":5067,"말았":5068,"무지":5069,"보지말":5070,"스파이":5071,"시는</w>":5072,"쓰는</w>":5073,"어찌</w>":5074,"왔는데</w>":5075,"자들</w>":5076,"점수가</w>":5077,"영화보면서</w>":5078,"만들면</w>":5079,"으로써</w>":5080,"몰입해서</w>":5081,"0000":5082,"인상적이":5083,"ing</w>":5084,"히어로":5085,"갈등":5086,"대를</w>":5087,"려요</w>":5088,"보다니</w>":5089,"빼곤</w>":5090,"섹스":5091,"아동":5092,"약한</w>":5093,"에대한</w>":5094,"이입":5095,"인줄":5096,"함은</w>":5097,"만들다니</w>":5098,"이런영화를</w>":5099,"알바들</w>":5100,"개연성이</w>":5101,"지나치게</w>":5102,"예쁘고</w>":5103,"만점에</w>":5104,"스크린":5105,"뮤지컬":5106,"5점</w>":5107,"7점</w>":5108,"끝이</w>":5109,"다룬</w>":5110,"도전":5111,"등등</w>":5112,"로서</w>":5113,"먹은</w>":5114,"배경</w>":5115,"버린":5116,"봤네</w>":5117,"안나":5118,"없이":5119,"최강":5120,"생각나서</w>":5121,"100</w>":5122,"아이디":5123,"떨어진다</w>":5124,"부분도</w>":5125,"이제서야</w>":5126,"프로그램</w>":5127,"이래서</w>":5128,"공짜":5129,"기준":5130,"신비":5131,"씨는</w>":5132,"어두":5133,"위대한</w>":5134,"젠장</w>":5135,"집어":5136,"코믹</w>":5137,"하던데</w>":5138,"하지말":5139,"한편</w>":5140,"한국영화는</w>":5141,"웃기지도</w>":5142,"행복한</w>":5143,"ㅠㅠㅠㅠㅠㅠㅠㅠ":5144,"모두가</w>":5145,"영원히</w>":5146,"기회":5147,"깊이</w>":5148,"남편":5149,"낮지</w>":5150,"모를</w>":5151,"발견":5152,"사회</w>":5153,"살면서</w>":5154,"시사회":5155,"신파":5156,"실력":5157,"심오":5158,"안돼":5159,"예뻐":5160,"자식":5161,"청소년":5162,"최근</w>":5163,"하구</w>":5164,"해보":5165,"사람도</w>":5166,"스토리의</w>":5167,"이해할</w>":5168,"연출과</w>":5169,"느낌의</w>":5170,"10점을</w>":5171,"시리즈는</w>":5172,"하시는</w>":5173,"돌아가":5174,"아줌마":5175,"갔다</w>":5176,"끝났":5177,"끝나는</w>":5178,"로봇":5179,"바랍니다</w>":5180,"오바":5181,"왔다</w>":5182,"이럴":5183,"인가":5184,"젊은":5185,"제임":5186,"보여준다</w>":5187,"이야기는</w>":5188,"가슴을</w>":5189,"부족하다</w>":5190,"분위기가</w>":5191,"멍청한</w>":5192,"그린</w>":5193,"늘어":5194,"러시":5195,"받아</w>":5196,"베드":5197,"상이</w>":5198,"싶은데</w>":5199,"아기":5200,"양심":5201,"영어":5202,"와의</w>":5203,"음ㅋㅋ</w>":5204,"임을</w>":5205,"주말":5206,"죽을":5207,"지났":5208,"트의</w>":5209,"풍경":5210,"한건지</w>":5211,"했을":5212,"재밌다고</w>":5213,"이런영화":5214,"아이들":5215,"한국영화":5216,"이었습니다</w>":5217,"아쉬움</w>":5218,"긴장감이</w>":5219,"뛰어넘":5220,"가능한</w>":5221,"봤는데도</w>":5222,"더러운</w>":5223,"영환데</w>":5224,"로그인":5225,"★★":5226,"감은</w>":5227,"내면":5228,"리즈":5229,"명을</w>":5230,"방송</w>":5231,"부부":5232,"비행":5233,"손가":5234,"신은</w>":5235,"았던</w>":5236,"의리":5237,"이랑":5238,"이죠</w>":5239,"이유</w>":5240,"중국</w>":5241,"할만한</w>":5242,"재미도없고</w>":5243,"재미있습니다</w>":5244,"감동적이다</w>":5245,"괜찮은데</w>":5246,"친구가</w>":5247,"시리즈중</w>":5248,"노래도</w>":5249,"문제가</w>":5250,"아저씨</w>":5251,"같네</w>":5252,"개념":5253,"낮다</w>":5254,"드네요</w>":5255,"들게</w>":5256,"사운":5257,"스페":5258,"우연":5259,"유지":5260,"이래</w>":5261,"일으":5262,"잼나":5263,"진정</w>":5264,"할지</w>":5265,"했었는데</w>":5266,"영화인가</w>":5267,"최고임</w>":5268,"기대안하고</w>":5269,"카메라</w>":5270,"아까운영화</w>":5271,"남은</w>":5272,"는것</w>":5273,"데리고</w>":5274,"리스</w>":5275,"버리는</w>":5276,"안볼":5277,"어우":5278,"이번</w>":5279,"최민":5280,"학생</w>":5281,"했지</w>":5282,"화끈":5283,"영화라는</w>":5284,"영화인지</w>":5285,"기대안":5286,"흥미로운</w>":5287,"시대의</w>":5288,"개연성도</w>":5289,"진부하고</w>":5290,"영화인줄</w>":5291,"30분":5292,"18":5293,"국가":5294,"내인생":5295,"년전에</w>":5296,"만은</w>":5297,"방영":5298,"사투":5299,"세상</w>":5300,"않네요</w>":5301,"잼있다</w>":5302,"충실":5303,"케릭":5304,"하면":5305,"할리":5306,"허세":5307,"여자의</w>":5308,"재밋어요</w>":5309,"부분은</w>":5310,"개인적":5311,"세상을</w>":5312,"그녀의</w>":5313,"기독교":5314,"2시간":5315,"ea":5316,"런닝":5317,"말할</w>":5318,"발로</w>":5319,"삶에</w>":5320,"설마</w>":5321,"수고":5322,"싸움":5323,"어쩔</w>":5324,"인도</w>":5325,"인들</w>":5326,"잊지</w>":5327,"정신</w>":5328,"토록</w>":5329,"필름":5330,"한개도</w>":5331,"해결":5332,"해선</w>":5333,"생각하면</w>":5334,"배우들은</w>":5335,"지루한":5336,"감독님":5337,"쓰레기같은</w>":5338,"반전은</w>":5339,"관객을</w>":5340,"어렸을</w>":5341,"알겠는데</w>":5342,"아닙니다</w>":5343,"CG</w>":5344,"가르":5345,"감흥":5346,"겠네요</w>":5347,"긴다</w>":5348,"됐다</w>":5349,"되나</w>":5350,"두번</w>":5351,"듭니다</w>":5352,"아가":5353,"아나":5354,"아이</w>":5355,"야동":5356,"야말로</w>":5357,"여러</w>":5358,"역사</w>":5359,"우드":5360,"음이</w>":5361,"인디":5362,"작위":5363,"하여":5364,"할말이</w>":5365,"형제":5366,"화를</w>":5367,"하나같이</w>":5368,"스러운":5369,"별로임</w>":5370,"다는거</w>":5371,"잔인한</w>":5372,"최고의영화</w>":5373,"유명한</w>":5374,"이연걸":5375,"그건</w>":5376,"느니</w>":5377,"다루":5378,"속편":5379,"신의</w>":5380,"영이</w>":5381,"있다고</w>":5382,"타고</w>":5383,"명작입니다</w>":5384,"훌륭하다</w>":5385,"감각":5386,"거부":5387,"근데":5388,"낚였":5389,"누가":5390,"돈을</w>":5391,"많아서</w>":5392,"봤을까</w>":5393,"스피":5394,"야구":5395,"엇다</w>":5396,"원의</w>":5397,"이것이</w>":5398,"영화중":5399,"매력적이":5400,"결말을</w>":5401,"한번도</w>":5402,"영화라니</w>":5403,"기다려":5404,"is</w>":5405,"on":5406,"결정":5407,"구성이</w>":5408,"남네요</w>":5409,"많은데</w>":5410,"말고는</w>":5411,"시도":5412,"실제로</w>":5413,"아들</w>":5414,"안된":5415,"안본":5416,"않을까</w>":5417,"였지만</w>":5418,"위해서</w>":5419,"은근":5420,"있냐</w>":5421,"장난</w>":5422,"젊은</w>":5423,"중독":5424,"집에</w>":5425,"충격</w>":5426,"치곤</w>":5427,"평을</w>":5428,"생각했는데</w>":5429,"감독을</w>":5430,"1점준":5431,"재밋게</w>":5432,"만들었는지</w>":5433,"ㅎㅎㅎㅎ</w>":5434,"즐거운</w>":5435,"한심한</w>":5436,"것인가</w>":5437,"긴하지만</w>":5438,"다를":5439,"도망":5440,"둘이</w>":5441,"똑같은</w>":5442,"미모":5443,"봤다":5444,"부탁":5445,"아야":5446,"영국":5447,"왔습니다</w>":5448,"이쁜":5449,"읽어":5450,"임에도</w>":5451,"좋다":5452,"주기</w>":5453,"주면</w>":5454,"찍어":5455,"함의</w>":5456,"해줬":5457,"했다면</w>":5458,"헤어":5459,"재미도":5460,"최고였다</w>":5461,"내용이":5462,"보기에는</w>":5463,"여운을</w>":5464,"강력":5465,"것도":5466,"관이</w>":5467,"당연":5468,"대해서</w>":5469,"드라</w>":5470,"려다가</w>":5471,"말하는</w>":5472,"멘타":5473,"봤을":5474,"사무":5475,"살고</w>":5476,"성격":5477,"아시":5478,"아예</w>":5479,"오글</w>":5480,"오빠</w>":5481,"유아":5482,"절로</w>":5483,"주지</w>":5484,"죽었":5485,"혹은</w>":5486,"화장":5487,"ㅋㅋㅋㅋㅋㅋㅋㅋ</w>":5488,"하나하나</w>":5489,"아까웠다</w>":5490,"아쉬웠":5491,"감정이</w>":5492,"없었음</w>":5493,"8점대":5494,"거북":5495,"고맙":5496,"그만큼</w>":5497,"넘게</w>":5498,"드를</w>":5499,"못할</w>":5500,"무료":5501,"받을</w>":5502,"비추":5503,"색다른</w>":5504,"생에</w>":5505,"여름":5506,"있다니</w>":5507,"잘봤어요</w>":5508,"힘이</w>":5509,"이런건</w>":5510,"몰입도가</w>":5511,"정말이지</w>":5512,"원작이</w>":5513,"떨어지고</w>":5514,"아쉽지만</w>":5515,"시청자":5516,"작가님</w>":5517,"2편은</w>":5518,"마무리</w>":5519,"어설프고</w>":5520,"5분":5521,"7점대":5522,"90":5523,"ㅠㅜ</w>":5524,"개는</w>":5525,"건가요</w>":5526,"겠음</w>":5527,"겠습니다</w>":5528,"과학":5529,"누나</w>":5530,"는지":5531,"미스터":5532,"봤다면</w>":5533,"없으면</w>":5534,"용으로</w>":5535,"이름</w>":5536,"인기":5537,"잔혹":5538,"장국":5539,"줄은</w>":5540,"탈출":5541,"재미없게</w>":5542,"으로만</w>":5543,"이상하게</w>":5544,"마지막까지</w>":5545,"있었음</w>":5546,"소재도</w>":5547,"나왔다</w>":5548,"연기력은</w>":5549,"답답한</w>":5550,"비디오로</w>":5551,"느꼈다</w>":5552,"러닝타임":5553,"블록버":5554,"끔찍":5555,"납니다</w>":5556,"다섯":5557,"레알</w>":5558,"배역":5559,"시킨</w>":5560,"올해</w>":5561,"인과</w>":5562,"자동":5563,"적절":5564,"지르":5565,"크로":5566,"터미":5567,"해진</w>":5568,"영화들</w>":5569,"재밋음</w>":5570,"짜증나서</w>":5571,"명작을</w>":5572,"따뜻하고</w>":5573,"의미가</w>":5574,"소름이</w>":5575,"OOO기":5576,"잘생겼":5577,"심지어</w>":5578,"2는</w>":5579,"겨우</w>":5580,"결코</w>":5581,"남주</w>":5582,"대작</w>":5583,"때의</w>":5584,"변태":5585,"보던</w>":5586,"시나</w>":5587,"안간다</w>":5588,"위에</w>":5589,"유발":5590,"으니까</w>":5591,"조니":5592,"지나도</w>":5593,"질리지</w>":5594,"짜집":5595,"한숨":5596,"한것</w>":5597,"재밌던데</w>":5598,"생각하는</w>":5599,"느낌이":5600,"000":5601,"노래가</w>":5602,"살다살다</w>":5603,"ou":5604,"갖고</w>":5605,"리아</w>":5606,"배트":5607,"빠졌":5608,"살리":5609,"앞에</w>":5610,"어디</w>":5611,"어여</w>":5612,"이든</w>":5613,"인지":5614,"임팩":5615,"좋앗":5616,"트를</w>":5617,"표현</w>":5618,"학년":5619,"액션을</w>":5620,"진짜로</w>":5621,"일본영화</w>":5622,"아름다운":5623,"전개와</w>":5624,"아쉬운":5625,"역사를</w>":5626,"당시에</w>":5627,"나쁘지</w>":5628,"초등학생":5629,"클레멘타":5630,"게하는</w>":5631,"낚였다</w>":5632,"낮네</w>":5633,"두려":5634,"려나</w>":5635,"명품":5636,"뭔가":5637,"석이</w>":5638,"선동":5639,"성과</w>":5640,"수입":5641,"스릴</w>":5642,"심형":5643,"애기":5644,"잊을</w>":5645,"정확":5646,"하신":5647,"할말":5648,"해준다</w>":5649,"아깝다":5650,"보여주고</w>":5651,"매력을</w>":5652,"무섭고</w>":5653,"주제를</w>":5654,"당신은</w>":5655,"시청률이</w>":5656,"대놓고</w>":5657,"동안":5658,"둘째":5659,"뒤에</w>":5660,"로를</w>":5661,"스에</w>":5662,"않은":5663,"않을":5664,"언니":5665,"언젠":5666,"예능":5667,"욕망":5668,"정작</w>":5669,"제니":5670,"최초":5671,"영화야</w>":5672,"재밌어서</w>":5673,"연기도":5674,"감동은</w>":5675,"재미없었다</w>":5676,"아깝네</w>":5677,"이상하고</w>":5678,"친구랑</w>":5679,"1편은</w>":5680,"추억이</w>":5681,"중요한</w>":5682,"잊혀지":5683,"터미네이":5684,"1편</w>":5685,"강한</w>":5686,"그대로":5687,"년전":5688,"드래":5689,"라가</w>":5690,"머리가</w>":5691,"목숨":5692,"무척</w>":5693,"봐서":5694,"손에</w>":5695,"않는":5696,"우뢰":5697,"이병":5698,"일깨":5699,"있어야</w>":5700,"피아":5701,"재밌는":5702,"지루해":5703,"연출은</w>":5704,"아무런</w>":5705,"보기에</w>":5706,"반전을</w>":5707,"만든영화</w>":5708,"있는영화</w>":5709,"기다리":5710,"아프다</w>":5711,"22":5712,"ba":5713,"st":5714,"건만</w>":5715,"극치</w>":5716,"냈다</w>":5717,"대통":5718,"드림</w>":5719,"만듬</w>":5720,"무술":5721,"문제</w>":5722,"바탕":5723,"부실":5724,"성의</w>":5725,"수많은</w>":5726,"없는게</w>":5727,"완성도</w>":5728,"제외":5729,"영화들":5730,"드라마의</w>":5731,"그래픽</w>":5732,"처음에는</w>":5733,"여자는</w>":5734,"영상이</w>":5735,"아직까지</w>":5736,"영화였음</w>":5737,"엉성하고</w>":5738,"부터가</w>":5739,"2014":5740,"안타까운</w>":5741,"여주가</w>":5742,"이따위":5743,"비주얼":5744,"다양한</w>":5745,"BS":5746,"li":5747,"거기에</w>":5748,"게요</w>":5749,"겠어요</w>":5750,"교과":5751,"굿굿":5752,"들어서</w>":5753,"막판에</w>":5754,"모양":5755,"못생":5756,"뭐니</w>":5757,"뭘까</w>":5758,"봤었":5759,"상태":5760,"웃긴</w>":5761,"유덕":5762,"으리":5763,"이리":5764,"이보다</w>":5765,"인거":5766,"인데":5767,"인물</w>":5768,"인들이</w>":5769,"잤다</w>":5770,"컴퓨":5771,"파워":5772,"파치":5773,"확인":5774,"영화보는</w>":5775,"내용과</w>":5776,"재미없어서</w>":5777,"처음에</w>":5778,"극장가서</w>":5779,"어색하고</w>":5780,"엄마가</w>":5781,"그리고":5782,"리메이크</w>":5783,"스스로</w>":5784,"감정</w>":5785,"것들이</w>":5786,"나보다</w>":5787,"높아서</w>":5788,"늦게</w>":5789,"니당</w>":5790,"님들</w>":5791,"라도":5792,"많아":5793,"먹었":5794,"묻어":5795,"뱀파이":5796,"부끄러":5797,"없다고</w>":5798,"여운</w>":5799,"오리":5800,"지는":5801,"처럼":5802,"키스":5803,"영화만</w>":5804,"정도면</w>":5805,"유치함</w>":5806,"짜증남</w>":5807,"영상과</w>":5808,"제작비":5809,"좋겠네요</w>":5810,"식상한</w>":5811,"훈훈한</w>":5812,"2시간</w>":5813,"dv":5814,"강호":5815,"과정":5816,"기지</w>":5817,"나면</w>":5818,"나에겐</w>":5819,"당연히</w>":5820,"동성애":5821,"드림":5822,"로드":5823,"발견</w>":5824,"베스트":5825,"본건데</w>":5826,"불가":5827,"소소한</w>":5828,"시즌</w>":5829,"없나요</w>":5830,"핵노잼</w>":5831,"재밌어요":5832,"내용도":5833,"하나하나가</w>":5834,"스러움</w>":5835,"학교때</w>":5836,"많은걸</w>":5837,"한편의</w>":5838,"2편</w>":5839,"갔는데</w>":5840,"관객</w>":5841,"김혜":5842,"꼬마":5843,"나중":5844,"때려":5845,"만하다</w>":5846,"맛이</w>":5847,"망치":5848,"명화":5849,"못한":5850,"바닥":5851,"본지</w>":5852,"수있는</w>":5853,"신고</w>":5854,"압권</w>":5855,"약간의</w>":5856,"없냐</w>":5857,"열정":5858,"익숙":5859,"인데도</w>":5860,"좋을</w>":5861,"죽는</w>":5862,"직접</w>":5863,"집착":5864,"짝퉁":5865,"찍은":5866,"추격":5867,"클래":5868,"이해하기</w>":5869,"괜찮음</w>":5870,"1점도":5871,"잼있음</w>":5872,"1편이</w>":5873,"소중한</w>":5874,"아저씨":5875,"이따구":5876,"말도안되는</w>":5877,"느낄수</w>":5878,"새벽에</w>":5879,"역대급</w>":5880,"해리포":5881,"게임</w>":5882,"기법":5883,"다크":5884,"던거</w>":5885,"던영화</w>":5886,"동시에</w>":5887,"말할":5888,"무한":5889,"번은</w>":5890,"벗어":5891,"보아":5892,"보자":5893,"부끄럽":5894,"서부":5895,"속으로</w>":5896,"압권":5897,"없고":5898,"예쁜":5899,"전율":5900,"제발":5901,"주고싶다</w>":5902,"차별":5903,"하길</w>":5904,"하아</w>":5905,"하지만":5906,"한참</w>":5907,"사람이라면</w>":5908,"내용에</w>":5909,"이런영화는</w>":5910,"마음으로</w>":5911,"별로고</w>":5912,"무엇인지</w>":5913,"같은영화</w>":5914,"모든걸</w>":5915,"유일하게</w>":5916,"그립다</w>":5917,"가야":5918,"낚시":5919,"몇몇</w>":5920,"번을</w>":5921,"심장":5922,"악한</w>":5923,"안감</w>":5924,"위대":5925,"이었는데</w>":5926,"티브":5927,"해도":5928,"호기":5929,"원작에</w>":5930,"는거다</w>":5931,"인생에</w>":5932,"웃기다</w>":5933,"영화라고":5934,"포스터가</w>":5935,"얼굴이</w>":5936,"단순히</w>":5937,"전문가":5938,"저예산":5939,"쓰래기</w>":5940,"놀랍다</w>":5941,"깨닫게</w>":5942,"DVD":5943,"0점이</w>":5944,"bs":5945,"그야말로</w>":5946,"길게</w>":5947,"끌고</w>":5948,"높게</w>":5949,"댓글</w>":5950,"들의":5951,"무너":5952,"봐줄":5953,"부작":5954,"싶어":5955,"어든</w>":5956,"영향":5957,"웃고</w>":5958,"위험":5959,"일은</w>":5960,"자랑":5961,"적어도</w>":5962,"줘도</w>":5963,"질리":5964,"참나</w>":5965,"체가</w>":5966,"쳤다</w>":5967,"트는</w>":5968,"한명":5969,"했더니</w>":5970,"영화이":5971,"재밌을":5972,"감독과</w>":5973,"하는건지</w>":5974,"시간아깝다</w>":5975,"다시보니</w>":5976,"가족이</w>":5977,"전쟁의</w>":5978,"어울리는</w>":5979,"불쌍하다</w>":5980,"교훈을</w>":5981,"ost</w>":5982,"전설의</w>":5983,"느와르":5984,"최근에</w>":5985,"시간가는줄</w>":5986,"70년대</w>":5987,"감안":5988,"나무":5989,"냄새":5990,"네티":5991,"돋보이는</w>":5992,"마르":5993,"메리":5994,"면이</w>":5995,"못하다</w>":5996,"세포":5997,"어쩜</w>":5998,"언니</w>":5999,"여태":6000,"외로":6001,"자리":6002,"점도</w>":6003,"편안":6004,"후회</w>":6005,"힘내":6006,"영화인</w>":6007,"최고로</w>":6008,"지루할</w>":6009,"아니지</w>":6010,"너무도</w>":6011,"좋아요":6012,"괜찮은":6013,"는거냐</w>":6014,"보았는데</w>":6015,"에게도</w>":6016,"몰랐다</w>":6017,"나머지</w>":6018,"케이블에서</w>":6019,"태어나서</w>":6020,"포르노":6021,"zz":6022,"그가</w>":6023,"긴박":6024,"년만에</w>":6025,"단편":6026,"든지</w>":6027,"마냥</w>":6028,"배급":6029,"본거":6030,"볼게</w>":6031,"봤지</w>":6032,"빠르":6033,"속편</w>":6034,"아파":6035,"안돼</w>":6036,"양아":6037,"어릴</w>":6038,"연극":6039,"오브":6040,"오오":6041,"이성":6042,"이수":6043,"정의</w>":6044,"키는</w>":6045,"폐지":6046,"한지":6047,"할머니":6048,"그렇게":6049,"왜이러":6050,"예쁘다</w>":6051,"요소가</w>":6052,"하하하</w>":6053,"쓸데없이</w>":6054,"14":6055,"것같아요</w>":6056,"겨서</w>":6057,"는대</w>":6058,"달려":6059,"담아":6060,"말은</w>":6061,"망한</w>":6062,"버려":6063,"부럽":6064,"비밀":6065,"스와</w>":6066,"약간":6067,"어진</w>":6068,"이가":6069,"주윤":6070,"즐기":6071,"진한</w>":6072,"찾아</w>":6073,"치고는</w>":6074,"특히":6075,"파괴":6076,"하군</w>":6077,"해주고</w>":6078,"화면</w>":6079,"후의</w>":6080,"소재와</w>":6081,"스럽지</w>":6082,"억지스러운</w>":6083,"가족의</w>":6084,"다는건</w>":6085,"무서웠":6086,"영화라서</w>":6087,"엔딩이</w>":6088,"이름이</w>":6089,"년도에</w>":6090,"이뻐서</w>":6091,"매니아":6092,"숨겨진</w>":6093,"어우러":6094,"ou</w>":6095,"개가</w>":6096,"그린":6097,"꽤나</w>":6098,"낸다</w>":6099,"덕에</w>":6100,"따분":6101,"만족</w>":6102,"박중":6103,"반드":6104,"범인":6105,"법한</w>":6106,"브라":6107,"세기</w>":6108,"애매":6109,"없음":6110,"였고</w>":6111,"이여</w>":6112,"임창":6113,"조합":6114,"치가</w>":6115,"한가":6116,"효과</w>":6117,"아니라고</w>":6118,"아깝네요</w>":6119,"하나는</w>":6120,"액션과</w>":6121,"이해를</w>":6122,"떨어짐</w>":6123,"모르겠네요</w>":6124,"감정이입":6125,"아름답게</w>":6126,"궁금하다</w>":6127,"집중해서</w>":6128,"사실을</w>":6129,"다르게</w>":6130,"♥♥♥</w>":6131,"시나리오가</w>":6132,"결론은</w>":6133,"겠죠</w>":6134,"공간":6135,"국내":6136,"기에는</w>":6137,"꼭보세요</w>":6138,"네유</w>":6139,"달콤":6140,"돈으로</w>":6141,"따로</w>":6142,"막히":6143,"뭐하나</w>":6144,"뭐하자":6145,"밀려":6146,"볼때</w>":6147,"에요":6148,"여주인공이</w>":6149,"인것</w>":6150,"자세":6151,"중2":6152,"크리":6153,"해요":6154,"홍상":6155,"재미로</w>":6156,"괜찮고</w>":6157,"때문에":6158,"지금의</w>":6159,"짜증나고</w>":6160,"수작이다</w>":6161,"헐리우드</w>":6162,"마무리":6163,"킬링타임용으로</w>":6164,"유일한</w>":6165,"일부러</w>":6166,"극장</w>":6167,"까봐</w>":6168,"나았":6169,"다는데</w>":6170,"레인":6171,"로가</w>":6172,"만도</w>":6173,"먼가</w>":6174,"뭐임</w>":6175,"본듯</w>":6176,"싶어요</w>":6177,"오프":6178,"올드":6179,"인형":6180,"자본":6181,"재능":6182,"잼나게</w>":6183,"조아":6184,"초에</w>":6185,"합니다":6186,"만들어서</w>":6187,"이런거":6188,"한국의</w>":6189,"있었고</w>":6190,"장난치":6191,"시즌1":6192,"가득한</w>":6193,"그저그런</w>":6194,"en":6195,"같지만</w>":6196,"같았다</w>":6197,"개성":6198,"갠적으로</w>":6199,"그거":6200,"김지":6201,"김태":6202,"깜짝":6203,"난잡":6204,"더욱":6205,"두근":6206,"뭐라</w>":6207,"버릴":6208,"복을</w>":6209,"불허":6210,"빨갱":6211,"아놀":6212,"않아서</w>":6213,"애국":6214,"어의</w>":6215,"어용</w>":6216,"우고</w>":6217,"웬만":6218,"인들의</w>":6219,"자와</w>":6220,"잡아":6221,"주가</w>":6222,"채널</w>":6223,"편집</w>":6224,"하진</w>":6225,"생각난다</w>":6226,"나오는데</w>":6227,"괜찮다</w>":6228,"한국영화의</w>":6229,"1점은</w>":6230,"다르다</w>":6231,"전체적인</w>":6232,"sf":6233,"기전에</w>":6234,"끝난":6235,"끝에</w>":6236,"나다</w>":6237,"나레이":6238,"노답":6239,"드디":6240,"리티</w>":6241,"미드</w>":6242,"밤에</w>":6243,"보구</w>":6244,"보셈</w>":6245,"보네요</w>":6246,"블루":6247,"소설</w>":6248,"손색":6249,"스타</w>":6250,"시킨":6251,"아들이</w>":6252,"우가</w>":6253,"이도저":6254,"잔뜩</w>":6255,"짜리":6256,"판단":6257,"해지고</w>":6258,"감독도</w>":6259,"하는것":6260,"기대없이</w>":6261,"괜찮았다</w>":6262,"아쉬움이</w>":6263,"제목을</w>":6264,"출연한</w>":6265,"1편보다</w>":6266,"다니는</w>":6267,"오랫만에</w>":6268,"김정":6269,"두고":6270,"들이나</w>":6271,"들이랑</w>":6272,"멋지고</w>":6273,"밑에":6274,"바다":6275,"받을":6276,"봤을</w>":6277,"부를</w>":6278,"선물":6279,"암걸":6280,"열연":6281,"왜곡":6282,"을수가</w>":6283,"잘봤":6284,"잘하":6285,"장동":6286,"짐캐":6287,"천국":6288,"첨엔</w>":6289,"치의</w>":6290,"치를</w>":6291,"커플</w>":6292,"편인데</w>":6293,"훨씬":6294,"좋았을":6295,"ㅠㅠㅠ":6296,"만드네</w>":6297,"느낌은</w>":6298,"일본은</w>":6299,"수준을</w>":6300,"잔잔하게</w>":6301,"한번쯤</w>":6302,"나이가</w>":6303,"이름을</w>":6304,"괜찮았는데</w>":6305,"참신한</w>":6306,"나름대로</w>":6307,"느와르</w>":6308,"44":6309,"곳에</w>":6310,"글고</w>":6311,"꿈꾸":6312,"나루":6313,"님은</w>":6314,"대본":6315,"라의</w>":6316,"멋있":6317,"부담":6318,"분의</w>":6319,"삶이</w>":6320,"심으로</w>":6321,"아는":6322,"안에서</w>":6323,"야한":6324,"엑스":6325,"웃으면서</w>":6326,"의미</w>":6327,"이동":6328,"인듯":6329,"죽어":6330,"즐겨":6331,"코난":6332,"환경":6333,"생각도</w>":6334,"하는영화</w>":6335,"드라마로</w>":6336,"한국에서</w>":6337,"작품성</w>":6338,"주인공들</w>":6339,"아무튼</w>":6340,"몰입감</w>":6341,"웃음만</w>":6342,"더럽게":6343,"디즈니</w>":6344,"시트콤</w>":6345,"반드시</w>":6346,"겠다는</w>":6347,"길을</w>":6348,"김희":6349,"도무지</w>":6350,"동양":6351,"때매</w>":6352,"맞지</w>":6353,"보소</w>":6354,"비현실":6355,"서양":6356,"싶지</w>":6357,"압도":6358,"어떨":6359,"이로</w>":6360,"이토록</w>":6361,"일에</w>":6362,"자주</w>":6363,"잘못</w>":6364,"잘만들":6365,"장한</w>":6366,"조카":6367,"티가</w>":6368,"하품":6369,"하니까</w>":6370,"혐오":6371,"ㅋㅋㅋㅋㅋ":6372,"10년이</w>":6373,"감동적</w>":6374,"사랑이야기</w>":6375,"보는내내":6376,"아이들과</w>":6377,"재밋엇":6378,"느낌이다</w>":6379,"인간은</w>":6380,"자체도</w>":6381,"안되는":6382,"알았음</w>":6383,"소리가</w>":6384,"귀여워</w>":6385,"설정이</w>":6386,"오래된</w>":6387,"시절의</w>":6388,"목소리가</w>":6389,"봐도봐도</w>":6390,"특별한</w>":6391,"ㅉㅉ":6392,"가시":6393,"고어":6394,"그럼":6395,"그자체</w>":6396,"극단":6397,"다녀":6398,"담겨":6399,"담은</w>":6400,"못봐주":6401,"박신":6402,"볼려고</w>":6403,"부정":6404,"새끼</w>":6405,"서의</w>":6406,"선을</w>":6407,"성우</w>":6408,"소년</w>":6409,"수면":6410,"었지만</w>":6411,"유행":6412,"이준":6413,"이요</w>":6414,"잃어":6415,"정보":6416,"착각":6417,"컨셉":6418,"사람이":6419,"내용의</w>":6420,"좋아할</w>":6421,"모르겟":6422,"인생은</w>":6423,"보이지</w>":6424,"대사도</w>":6425,"시리즈의</w>":6426,"살아가는</w>":6427,"작가의</w>":6428,"어울리":6429,"포스터에</w>":6430,"실화를</w>":6431,"희망을</w>":6432,"뮤지컬</w>":6433,"강렬한</w>":6434,"견자단":6435,"18</w>":6436,"것같은</w>":6437,"김치":6438,"낮게</w>":6439,"내리":6440,"넘치":6441,"놓은":6442,"대부분</w>":6443,"도의</w>":6444,"또다른</w>":6445,"말인가</w>":6446,"모를":6447,"몽환":6448,"앞에서</w>":6449,"에다가</w>":6450,"오브</w>":6451,"일의</w>":6452,"종영":6453,"좋다고</w>":6454,"짧은</w>":6455,"축구":6456,"터지":6457,"폭풍":6458,"함도</w>":6459,"형사":6460,"흐르는</w>":6461,"영화지</w>":6462,"이라고":6463,"아까워서</w>":6464,"다시보고싶":6465,"만들었을까</w>":6466,"제목만</w>":6467,"시작해서</w>":6468,"시작부터</w>":6469,"후반부</w>":6470,"시즌2":6471,"이딴걸</w>":6472,"영상미가</w>":6473,"어렵다</w>":6474,"어쩔수":6475,"디즈니":6476,"av":6477,"가면서</w>":6478,"과거</w>":6479,"담배":6480,"당황":6481,"돌리":6482,"모험":6483,"미는</w>":6484,"보이</w>":6485,"보라고</w>":6486,"부러":6487,"부는</w>":6488,"브리":6489,"사용":6490,"었고</w>":6491,"여배우":6492,"예전</w>":6493,"이없다</w>":6494,"이너무":6495,"잠깐</w>":6496,"잡는</w>":6497,"점수준":6498,"하거나</w>":6499,"한방":6500,"홍콩</w>":6501,"흡입":6502,"영화예요</w>":6503,"시간만</w>":6504,"마지막이</w>":6505,"있었어요</w>":6506,"지않았":6507,"무서워":6508,"영화라지만</w>":6509,"궁금해서</w>":6510,"불편한</w>":6511,"지겹다</w>":6512,"가벼운</w>":6513,"짜임새":6514,"가끔":6515,"강동":6516,"그동안</w>":6517,"나랑</w>":6518,"담담":6519,"도데":6520,"래도</w>":6521,"력을</w>":6522,"로코":6523,"마자</w>":6524,"맞춰":6525,"버려</w>":6526,"선정":6527,"소시":6528,"않은데</w>":6529,"연속</w>":6530,"의식":6531,"의도가</w>":6532,"자들의</w>":6533,"잖아요</w>":6534,"적당히</w>":6535,"전성":6536,"전의</w>":6537,"좀비</w>":6538,"질이</w>":6539,"찍고</w>":6540,"탄생":6541,"트라":6542,"호구":6543,"혹시</w>":6544,"아니잖아</w>":6545,"현실이</w>":6546,"매력에</w>":6547,"그렇지만</w>":6548,"제작비</w>":6549,"시리즈를</w>":6550,"이제는</w>":6551,"배경이</w>":6552,"집중이</w>":6553,"상황을</w>":6554,"볼수있는</w>":6555,"TV에서</w>":6556,"탄탄하고</w>":6557,"손가락":6558,"of</w>":6559,"가면":6560,"가에</w>":6561,"고딩":6562,"관계</w>":6563,"그것이</w>":6564,"극복":6565,"근래</w>":6566,"기위해</w>":6567,"나음</w>":6568,"남는":6569,"놈이</w>":6570,"돈주고":6571,"마니":6572,"만약</w>":6573,"미니":6574,"보려":6575,"불륜</w>":6576,"습니까</w>":6577,"알겠다</w>":6578,"엉망</w>":6579,"이들이</w>":6580,"일듯</w>":6581,"졸라":6582,"죽은</w>":6583,"죽고</w>":6584,"직한</w>":6585,"착한</w>":6586,"치면</w>":6587,"표정</w>":6588,"할수가</w>":6589,"희대의</w>":6590,"시간때우":6591,"드라마에</w>":6592,"작품입니다</w>":6593,"이상으로</w>":6594,"1점을</w>":6595,"하고는</w>":6596,"아무도</w>":6597,"는데요</w>":6598,"실망이다</w>":6599,"007":6600,"역사상</w>":6601,"보시면</w>":6602,"어쩌면</w>":6603,"조금은</w>":6604,"ㅋㅋㅋㅋㅋㅋㅋㅋㅋㅋㅋㅋㅋㅋㅋㅋㅋㅋㅋㅋㅋㅋㅋㅋㅋㅋㅋㅋㅋㅋㅋㅋ":6605,"영원한</w>":6606,"놀라운</w>":6607,"뜬금없는</w>":6608,"다행이다</w>":6609,"김기덕":6610,"우려먹":6611,"2번":6612,"ti":6613,"가수":6614,"갔다":6615,"것처럼</w>":6616,"끼워":6617,"낮아</w>":6618,"단순</w>":6619,"담백":6620,"들로</w>":6621,"매일</w>":6622,"모로</w>":6623,"므로</w>":6624,"야한다</w>":6625,"에다</w>":6626,"에효</w>":6627,"여친":6628,"전지":6629,"정화":6630,"죽은":6631,"하도</w>":6632,"하지말고</w>":6633,"사람들을</w>":6634,"드라마다</w>":6635,"드라마도</w>":6636,"볼만했다</w>":6637,"전개는</w>":6638,"부분에서</w>":6639,"정신이</w>":6640,"않았지만</w>":6641,"ㅜㅜㅜㅜ":6642,"허술한</w>":6643,"16":6644,"me</w>":6645,"♡♡":6646,"가없다</w>":6647,"간에</w>":6648,"감과</w>":6649,"구역":6650,"대가":6651,"더니":6652,"더더":6653,"될듯</w>":6654,"무겁":6655,"무게":6656,"방식":6657,"배신":6658,"베리":6659,"보여</w>":6660,"뻔했다</w>":6661,"삭제":6662,"슨이</w>":6663,"아만":6664,"안봐도</w>":6665,"웠습니다</w>":6666,"윌리":6667,"이들</w>":6668,"이쁨</w>":6669,"주는데</w>":6670,"짜릿":6671,"재미있는데</w>":6672,"좋아하지만</w>":6673,"사랑합니다</w>":6674,"기대했":6675,"일본의</w>":6676,"보기가</w>":6677,"제작비가</w>":6678,"라이언</w>":6679,"불쌍한</w>":6680,"귀엽다</w>":6681,"다운받아":6682,"이하도</w>":6683,"OST</w>":6684,"쓰래기":6685,"17":6686,"25":6687,"Good</w>":6688,"al":6689,"on</w>":6690,"건강":6691,"격투":6692,"관련":6693,"그것을</w>":6694,"나은</w>":6695,"다신</w>":6696,"답게</w>":6697,"따지":6698,"라스":6699,"마리":6700,"뭐가":6701,"믿을":6702,"비중":6703,"비호":6704,"빛나는</w>":6705,"살린</w>":6706,"실험":6707,"영의</w>":6708,"와이":6709,"욕을</w>":6710,"저러":6711,"저리</w>":6712,"적절한</w>":6713,"종일":6714,"좋네</w>":6715,"줬다</w>":6716,"출연</w>":6717,"폭발":6718,"하더라</w>":6719,"할거":6720,"드라마입니다</w>":6721,"장면만</w>":6722,"현실과</w>":6723,"유치해서</w>":6724,"반전에</w>":6725,"만들어라</w>":6726,"10점주는</w>":6727,"여운이":6728,"세상이</w>":6729,"하시길</w>":6730,"ㅎㅎㅎㅎ":6731,"언제봐도</w>":6732,"재미있었습니다</w>":6733,"2편이</w>":6734,"소중함을</w>":6735,"못보겠다</w>":6736,"아버지의</w>":6737,"김기덕</w>":6738,"놀랐다</w>":6739,"견자단</w>":6740,"디테일":6741,"나네</w>":6742,"내게</w>":6743,"똑같":6744,"리와</w>":6745,"맞은</w>":6746,"반대":6747,"봤을때":6748,"상의</w>":6749,"신하":6750,"아아</w>":6751,"아래</w>":6752,"안본다</w>":6753,"우의</w>":6754,"울면서</w>":6755,"울리는</w>":6756,"유럽":6757,"이에</w>":6758,"이쁜</w>":6759,"잊지못":6760,"죽음</w>":6761,"지에</w>":6762,"팬이":6763,"하러</w>":6764,"해준":6765,"했을때</w>":6766,"황정":6767,"생각하게":6768,"이런류의</w>":6769,"아까워":6770,"아이들의</w>":6771,"작품성":6772,"있었습니다</w>":6773,"애니는</w>":6774,"전개에</w>":6775,"음악은</w>":6776,"봐야하는</w>":6777,"미국의</w>":6778,"아버지가</w>":6779,"내가본</w>":6780,"황당한</w>":6781,"다큐멘터리</w>":6782,"최악의영화</w>":6783,"1시간":6784,"il":6785,"ie</w>":6786,"tt":6787,"각색":6788,"개막장</w>":6789,"난리":6790,"대충":6791,"도시":6792,"동화</w>":6793,"들한테</w>":6794,"매우":6795,"못하는":6796,"뭐고</w>":6797,"미녀":6798,"속이</w>":6799,"스키":6800,"아담":6801,"아라</w>":6802,"아빠</w>":6803,"애초에</w>":6804,"어이</w>":6805,"원숭":6806,"조차":6807,"지옥":6808,"하신</w>":6809,"햇다</w>":6810,"희가</w>":6811,"사랑해요</w>":6812,"보고있":6813,"마지막엔</w>":6814,"만들어주":6815,"메이드</w>":6816,"하기에</w>":6817,"무서움</w>":6818,"빠져서</w>":6819,"재미있었음</w>":6820,"내생에</w>":6821,"비주얼</w>":6822,"카리스마":6823,"드래곤":6824,"대통령":6825,"1위":6826,"co":6827,"구라":6828,"남았":6829,"든가</w>":6830,"들여":6831,"말자</w>":6832,"명복을</w>":6833,"무난":6834,"밝혀":6835,"베스트</w>":6836,"보긴":6837,"보이고</w>":6838,"보아도</w>":6839,"보느니</w>":6840,"봤고</w>":6841,"브래":6842,"스텔":6843,"시도</w>":6844,"심한</w>":6845,"안나온다</w>":6846,"엘리":6847,"였으면</w>":6848,"이들의</w>":6849,"인종":6850,"자들이</w>":6851,"자기가</w>":6852,"죽이는</w>":6853,"쳐도</w>":6854,"코난</w>":6855,"탁월":6856,"트랜":6857,"생각해</w>":6858,"장면들이</w>":6859,"영상도</w>":6860,"인생이</w>":6861,"장난하냐</w>":6862,"재밌게봤어요</w>":6863,"마이클":6864,"마이클</w>":6865,"당시엔</w>":6866,"어른이</w>":6867,"헐리웃":6868,"부모님":6869,"시트콤":6870,"제임스</w>":6871,"은근히</w>":6872,"일깨워":6873,"as":6874,"가정":6875,"가며</w>":6876,"과대":6877,"구조":6878,"끝난</w>":6879,"도와":6880,"뒤죽":6881,"드니":6882,"디카":6883,"란티":6884,"무간":6885,"뭐라고</w>":6886,"살았":6887,"세여</w>":6888,"소소":6889,"소화":6890,"스필":6891,"실감":6892,"싶을</w>":6893,"어를</w>":6894,"역을</w>":6895,"예수":6896,"원주":6897,"으려고</w>":6898,"의를</w>":6899,"이렇":6900,"일베":6901,"일주":6902,"장의</w>":6903,"정당":6904,"하네":6905,"허허</w>":6906,"영화제":6907,"배우들을</w>":6908,"감동이":6909,"사랑스러":6910,"기대가</w>":6911,"적이지</w>":6912,"여자를</w>":6913,"필요가</w>":6914,"모습은</w>":6915,"티비로</w>":6916,"여러번</w>":6917,"진지하게</w>":6918,"이연걸</w>":6919,"ery</w>":6920,"산만하고</w>":6921,"쓸데없는</w>":6922,"마이너스</w>":6923,"전반적으로</w>":6924,"둘째치고</w>":6925,"뒤죽박":6926,"3번":6927,"SF</w>":6928,"Th":6929,"in</w>":6930,"가는데</w>":6931,"개를</w>":6932,"괜히":6933,"구성도</w>":6934,"깜짝</w>":6935,"나가</w>":6936,"나가는</w>":6937,"달리</w>":6938,"마누":6939,"명불허":6940,"무식":6941,"물로</w>":6942,"민주":6943,"범죄</w>":6944,"사건</w>":6945,"스카":6946,"슬픔</w>":6947,"싶어서</w>":6948,"아가</w>":6949,"야할</w>":6950,"우스":6951,"운데</w>":6952,"움과</w>":6953,"잘한다</w>":6954,"장르</w>":6955,"줄수":6956,"진이</w>":6957,"찾아서</w>":6958,"첨부터</w>":6959,"추리":6960,"추억</w>":6961,"키드":6962,"할뿐</w>":6963,"영화같다</w>":6964,"최고네요</w>":6965,"재미없다고</w>":6966,"아까울":6967,"있었으면</w>":6968,"볼만합니다</w>":6969,"20분":6970,"명작은</w>":6971,"공감도</w>":6972,"어이없다</w>":6973,"세상에서</w>":6974,"보지마셈</w>":6975,"시키지</w>":6976,"아프고</w>":6977,"만큼이나</w>":6978,"요즘은</w>":6979,"어느정도</w>":6980,"헐리웃</w>":6981,"점수는</w>":6982,"1시간</w>":6983,"가히</w>":6984,"께요</w>":6985,"났음</w>":6986,"년의</w>":6987,"놀래":6988,"단체":6989,"담긴</w>":6990,"라스</w>":6991,"많아</w>":6992,"말하고자</w>":6993,"맞고</w>":6994,"면을</w>":6995,"못주":6996,"박보":6997,"박한</w>":6998,"변화":6999,"봤을때</w>":7000,"선사":7001,"세번":7002,"속았다</w>":7003,"스톤":7004,"슨의</w>":7005,"신을</w>":7006,"어는</w>":7007,"예술</w>":7008,"외에는</w>":7009,"우정":7010,"원은</w>":7011,"유리":7012,"이종":7013,"인건</w>":7014,"읽고</w>":7015,"자로</w>":7016,"전을</w>":7017,"졸업":7018,"준비":7019,"지나</w>":7020,"차이":7021,"트리":7022,"할때":7023,"회가</w>":7024,"흑백":7025,"영화보다가</w>":7026,"하는가</w>":7027,"하는것</w>":7028,"다시보고</w>":7029,"소재의</w>":7030,"느끼고</w>":7031,"연기력에</w>":7032,"감동적이네요</w>":7033,"유쾌하게</w>":7034,"오글거리":7035,"살인마":7036,"거기다</w>":7037,"연예인</w>":7038,"풋풋한</w>":7039,"크레딧":7040,"믿고보는</w>":7041,"dvd":7042,"드디어</w>":7043,"you</w>":7044,"가의</w>":7045,"개똥":7046,"개그</w>":7047,"객관":7048,"공중":7049,"그들":7050,"그들이</w>":7051,"극히</w>":7052,"낮네요</w>":7053,"답니다</w>":7054,"드문</w>":7055,"때리":7056,"멋있고</w>":7057,"박수":7058,"보통</w>":7059,"본거</w>":7060,"불안":7061,"삶과</w>":7062,"소통":7063,"애를</w>":7064,"어마":7065,"어정":7066,"연속":7067,"우정</w>":7068,"이승":7069,"인지도</w>":7070,"잘하시":7071,"적임</w>":7072,"절제":7073,"죄송":7074,"지부":7075,"지하":7076,"하던":7077,"흘리":7078,"영화중에서</w>":7079,"보고있는데</w>":7080,"보고있어요</w>":7081,"모르지만</w>":7082,"괜찮네요</w>":7083,"명작이</w>":7084,"만들었나</w>":7085,"캐릭터들이</w>":7086,"알았네</w>":7087,"킬링타임</w>":7088,"보게되":7089,"리얼리티":7090,"하자면</w>":7091,"뜬금없이</w>":7092,"강추합니다</w>":7093,"도데체</w>":7094,"bb</w>":7095,"가라</w>":7096,"겠다":7097,"그는</w>":7098,"극의</w>":7099,"기는":7100,"기획":7101,"끝도</w>":7102,"끝나서</w>":7103,"남아</w>":7104,"놈들은</w>":7105,"다세포":7106,"대에</w>":7107,"대신</w>":7108,"드로</w>":7109,"라노":7110,"말그대로</w>":7111,"맞아</w>":7112,"못하겠":7113,"봤는지</w>":7114,"분량":7115,"싶어</w>":7116,"안습</w>":7117,"영구":7118,"웃었":7119,"으리</w>":7120,"의사":7121,"이끌어":7122,"잘만든":7123,"줄리":7124,"짝이</w>":7125,"초딩</w>":7126,"티비</w>":7127,"파격":7128,"해졌":7129,"흔들":7130,"영화관</w>":7131,"좋았을텐데</w>":7132,"현실은</w>":7133,"보기싫":7134,"주제가</w>":7135,"♥♥♥♥":7136,"괜찮았음</w>":7137,"부터는</w>":7138,"아마추":7139,"스파이더":7140,"oc":7141,"건지":7142,"고뇌":7143,"괜찬":7144,"나왓":7145,"나을듯</w>":7146,"높지</w>":7147,"님을</w>":7148,"됐는데</w>":7149,"들은":7150,"떠나</w>":7151,"림이</w>":7152,"물어":7153,"미스</w>":7154,"보러</w>":7155,"생명":7156,"시점":7157,"시종일":7158,"아리":7159,"아바":7160,"알파치":7161,"없던</w>":7162,"열받":7163,"외엔</w>":7164,"욕이</w>":7165,"웠어요</w>":7166,"위원":7167,"유머</w>":7168,"이와</w>":7169,"일품":7170,"저급":7171,"절대로</w>":7172,"줘야</w>":7173,"찬란":7174,"키아":7175,"타란티":7176,"편의</w>":7177,"호불":7178,"흉내":7179,"시간이":7180,"시간도</w>":7181,"하나요</w>":7182,"괜찮게</w>":7183,"한국인":7184,"보여준":7185,"공포를</w>":7186,"ㅋㅋㅋㅋㅋㅋㅋㅋㅋ</w>":7187,"이었던</w>":7188,"캐릭터도</w>":7189,"모르겠네</w>":7190,"않았던</w>":7191,"문제를</w>":7192,"어린시절</w>":7193,"순수하고</w>":7194,"되었습니다</w>":7195,"좋겠습니다</w>":7196,"초딩때</w>":7197,"2점부터</w>":7198,"러브라":7199,"미소가</w>":7200,"케릭터":7201,"스필버":7202,"30년":7203,"5년":7204,"ㅜㅠ</w>":7205,"간지":7206,"같지</w>":7207,"고있는</w>":7208,"구나":7209,"권상":7210,"대고</w>":7211,"디워":7212,"떠올":7213,"많네</w>":7214,"멋졌":7215,"모니":7216,"모욕":7217,"반영":7218,"보지마</w>":7219,"빛을</w>":7220,"사에</w>":7221,"사상</w>":7222,"상은</w>":7223,"아진짜</w>":7224,"안보는게</w>":7225,"연습":7226,"왠만한</w>":7227,"인정</w>":7228,"자아":7229,"적으로":7230,"정준":7231,"좋지</w>":7232,"좋을듯</w>":7233,"천재</w>":7234,"커녕</w>":7235,"햇는데</w>":7236,"화는</w>":7237,"힘을</w>":7238,"영화다":7239,"재밌음":7240,"10년</w>":7241,"보고도</w>":7242,"기억에":7243,"여자들</w>":7244,"지않다</w>":7245,"스릴도</w>":7246,"모습에</w>":7247,"흥미를</w>":7248,"스타워":7249,"무서워</w>":7250,"알바가</w>":7251,"시대가</w>":7252,"시리즈가</w>":7253,"답답하다</w>":7254,"인상적인</w>":7255,"엄청나게</w>":7256,"더빙이</w>":7257,"당신이</w>":7258,"스티븐</w>":7259,"로버트</w>":7260,"세월이</w>":7261,"est</w>":7262,"디카프리":7263,"1개":7264,"6점대":7265,"mov":7266,"감성</w>":7267,"게스트":7268,"공룡":7269,"남의</w>":7270,"등록":7271,"마이</w>":7272,"만났":7273,"멋잇":7274,"미화</w>":7275,"부자연":7276,"빠순":7277,"빠져</w>":7278,"소피":7279,"심하다</w>":7280,"아카":7281,"암울":7282,"애잔":7283,"어떠":7284,"억울":7285,"왕조":7286,"이안":7287,"이군</w>":7288,"이니까</w>":7289,"있으나</w>":7290,"줘야지</w>":7291,"지키":7292,"지게</w>":7293,"직업":7294,"진실</w>":7295,"차승":7296,"천만":7297,"팬이</w>":7298,"형이</w>":7299,"혹시나</w>":7300,"영화들이</w>":7301,"재미없어":7302,"액션의</w>":7303,"이상한":7304,"에서만</w>":7305,"하고싶다</w>":7306,"아무리":7307,"솔직히":7308,"별로였다</w>":7309,"아닌가요</w>":7310,"있는가</w>":7311,"제목은</w>":7312,"보게되는</w>":7313,"설정은</w>":7314,"여러분</w>":7315,"사이코":7316,"흥미진진</w>":7317,"자극적인</w>":7318,"낮은지</w>":7319,"완성도":7320,"무언가</w>":7321,"레전드</w>":7322,"파워레인":7323,"90년대":7324,"es</w>":7325,"것만으로도</w>":7326,"권력":7327,"기괴":7328,"기와</w>":7329,"깨알":7330,"낮추":7331,"도대체":7332,"독일":7333,"드립":7334,"따름</w>":7335,"만남</w>":7336,"맙시다</w>":7337,"모른다</w>":7338,"뭐여</w>":7339,"바로":7340,"받았다</w>":7341,"방해":7342,"보신":7343,"볼게":7344,"부가</w>":7345,"사극</w>":7346,"새록":7347,"서울":7348,"성의":7349,"세이":7350,"스펙":7351,"싶었다</w>":7352,"쓸쓸":7353,"어차":7354,"올해":7355,"웠고</w>":7356,"이구나</w>":7357,"작이</w>":7358,"적에</w>":7359,"조절</w>":7360,"중딩":7361,"즈의</w>":7362,"찾는</w>":7363,"총체":7364,"판이</w>":7365,"영화임":7366,"영화란</w>":7367,"생각할</w>":7368,"사람들에게</w>":7369,"시간은</w>":7370,"아이언":7371,"쓰레기를</w>":7372,"현실성":7373,"연출력이</w>":7374,"하고싶은":7375,"지않는다</w>":7376,"짜증이</w>":7377,"인간들</w>":7378,"하기가</w>":7379,"떨어뜨":7380,"가족을</w>":7381,"어이없음</w>":7382,"느껴졌다</w>":7383,"캐릭터는</w>":7384,"어디로</w>":7385,"007</w>":7386,"장난하나</w>":7387,"보았던</w>":7388,"사회의</w>":7389,"포스터만</w>":7390,"충격적인</w>":7391,"충격적이":7392,"캐스팅이</w>":7393,"CG가</w>":7394,"어설프다</w>":7395,"입장에서</w>":7396,"스트레스</w>":7397,"패러디":7398,"이도저도</w>":7399,"시종일관</w>":7400,"2탄":7401,"7광":7402,"80":7403,"dd":7404,"ㅎㄷㄷ</w>":7405,"갈수":7406,"강아":7407,"개노잼</w>":7408,"귀여운":7409,"그레이":7410,"극을</w>":7411,"길이</w>":7412,"남고</w>":7413,"낫겠다</w>":7414,"되요</w>":7415,"등장</w>":7416,"롭고</w>":7417,"마시길</w>":7418,"말씀":7419,"맞게</w>":7420,"맡은</w>":7421,"머야</w>":7422,"먹칠":7423,"몸매</w>":7424,"물의</w>":7425,"뮤직":7426,"반도</w>":7427,"부로</w>":7428,"브로":7429,"선이</w>":7430,"싶습니다</w>":7431,"안나옴</w>":7432,"앞뒤":7433,"었으면</w>":7434,"에드":7435,"왕가":7436,"이어</w>":7437,"이만한</w>":7438,"인에</w>":7439,"재현":7440,"첨이다</w>":7441,"편을</w>":7442,"하면서":7443,"하던가</w>":7444,"한석":7445,"한순간":7446,"연기가":7447,"최고최고</w>":7448,"10자":7449,"보는거":7450,"그래도":7451,"이해할수":7452,"이야기의</w>":7453,"캐릭터를</w>":7454,"말이필요없다</w>":7455,"어렸을":7456,"보고나니</w>":7457,"전문가</w>":7458,"나머지는</w>":7459,"거지같은</w>":7460,"한테는</w>":7461,"미스테":7462,"인터넷":7463,"결국은</w>":7464,"5년</w>":7465,"6점</w>":7466,"개판</w>":7467,"개막장":7468,"거의":7469,"고문":7470,"귀신</w>":7471,"넘어</w>":7472,"놨네</w>":7473,"느낀</w>":7474,"답답</w>":7475,"대단</w>":7476,"던져":7477,"들끼리</w>":7478,"로써</w>":7479,"마녀":7480,"마약":7481,"마찬":7482,"마저도</w>":7483,"맞다</w>":7484,"멋짐</w>":7485,"몰아":7486,"못해서</w>":7487,"뭐랄까</w>":7488,"봣다</w>":7489,"비쥬":7490,"사이</w>":7491,"소유":7492,"실화</w>":7493,"안들":7494,"연관":7495,"월드":7496,"음에도</w>":7497,"의리</w>":7498,"의도는</w>":7499,"인권":7500,"잘만들었다</w>":7501,"전화":7502,"절망":7503,"조합</w>":7504,"좋겟":7505,"증이</w>":7506,"찾기</w>":7507,"칭찬":7508,"코스":7509,"평생":7510,"하겠다</w>":7511,"아니었다</w>":7512,"나오네요</w>":7513,"좋았을</w>":7514,"아이를</w>":7515,"눈물이":7516,"만들어낸</w>":7517,"표현이</w>":7518,"공감할</w>":7519,"이었어요</w>":7520,"느껴졌":7521,"나온다":7522,"보고싶은데</w>":7523,"보다가":7524,"귀여워요</w>":7525,"문제는</w>":7526,"보게된</w>":7527,"이영화를":7528,"여러가지</w>":7529,"이것보단</w>":7530,"당시에는</w>":7531,"한심하다</w>":7532,"웃겨서</w>":7533,"가까운</w>":7534,"싸이코패":7535,"역겹다</w>":7536,"오리지":7537,"1년":7538,"M창</w>":7539,"ma":7540,"강간":7541,"겁나":7542,"교훈</w>":7543,"글을</w>":7544,"끝남</w>":7545,"돈내고</w>":7546,"똑같이</w>":7547,"리한</w>":7548,"마시":7549,"머냐</w>":7550,"먼저":7551,"멋져요</w>":7552,"묘하게</w>":7553,"민폐":7554,"민의</w>":7555,"본질":7556,"분을</w>":7557,"비록</w>":7558,"시가</w>":7559,"싸우는</w>":7560,"에나</w>":7561,"에라이</w>":7562,"을정도로</w>":7563,"이시":7564,"이은":7565,"인상</w>":7566,"잖은</w>":7567,"전이</w>":7568,"좋으나</w>":7569,"줄수</w>":7570,"지난":7571,"진리":7572,"쩌는</w>":7573,"쯤은</w>":7574,"창피":7575,"철저":7576,"치유":7577,"할꺼":7578,"재미는":7579,"감동도":7580,"사랑하고</w>":7581,"정도다</w>":7582,"현실성</w>":7583,"아무생각없이</w>":7584,"이야기도</w>":7585,"만들어졌":7586,"돌아보게</w>":7587,"관객이</w>":7588,"라이언":7589,"대박이다</w>":7590,"웃음을</w>":7591,"모든것이</w>":7592,"어릴때":7593,"오글오글</w>":7594,"조금만</w>":7595,"교훈도</w>":7596,"예고편</w>":7597,"오글거리는</w>":7598,"진지한</w>":7599,"독립영화</w>":7600,"누군지</w>":7601,"기도하고</w>":7602,"형편없는</w>":7603,"못하겠다</w>":7604,"오로지</w>":7605,"공짜로</w>":7606,"it</w>":7607,"겉멋":7608,"놈의</w>":7609,"눈으로</w>":7610,"다ㅋㅋ</w>":7611,"다이하":7612,"도라":7613,"된다는</w>":7614,"드만</w>":7615,"디자":7616,"따듯":7617,"마법":7618,"매이":7619,"매끄럽":7620,"멋있는</w>":7621,"물에</w>":7622,"봤나</w>":7623,"빵점</w>":7624,"사와</w>":7625,"생기":7626,"성형":7627,"소개":7628,"아의</w>":7629,"약하다</w>":7630,"어딘":7631,"어수":7632,"없었는데</w>":7633,"없어도</w>":7634,"엇는데</w>":7635,"에로</w>":7636,"영웅</w>":7637,"운명":7638,"이탈":7639,"잃은</w>":7640,"있겠지만</w>":7641,"잊고</w>":7642,"장을</w>":7643,"조폭</w>":7644,"지라도</w>":7645,"짓을</w>":7646,"짜여":7647,"짝퉁</w>":7648,"쩔어</w>":7649,"채우":7650,"펑펑":7651,"했다가</w>":7652,"호러</w>":7653,"생각은</w>":7654,"재미있었는데</w>":7655,"감동입니다</w>":7656,"사랑스럽고</w>":7657,"재미없었":7658,"기대하고":7659,"영상은</w>":7660,"그렇다":7661,"보이지만</w>":7662,"잼있네요</w>":7663,"긴장감을</w>":7664,"시키고</w>":7665,"198":7666,"당신의</w>":7667,"멋지게</w>":7668,"엉망진":7669,"질질끌":7670,"터미네이터":7671,"MB":7672,"가득</w>":7673,"과정이</w>":7674,"구리":7675,"구가</w>":7676,"국내</w>":7677,"굳굳</w>":7678,"기자":7679,"달리":7680,"답이</w>":7681,"대결":7682,"동생</w>":7683,"딸이</w>":7684,"로보":7685,"매번</w>":7686,"머릿":7687,"민족":7688,"상식":7689,"상에</w>":7690,"수없는</w>":7691,"스에서</w>":7692,"싸움</w>":7693,"안될":7694,"앞으로":7695,"애들도</w>":7696,"어제":7697,"에대해</w>":7698,"역량":7699,"웃었다</w>":7700,"이랄까</w>":7701,"있게":7702,"재방":7703,"착한":7704,"최소</w>":7705,"치다</w>":7706,"코드가</w>":7707,"틈이</w>":7708,"플롯":7709,"허나</w>":7710,"흐르":7711,"영화랑</w>":7712,"연기만</w>":7713,"드라마중</w>":7714,"이해불가</w>":7715,"쓰레기는</w>":7716,"마지막은</w>":7717,"다시금</w>":7718,"공포는</w>":7719,"만드냐</w>":7720,"짜증만</w>":7721,"10점준다</w>":7722,"들어가":7723,"들어도</w>":7724,"캐릭터들</w>":7725,"제목에</w>":7726,"대사는</w>":7727,"영화라면</w>":7728,"얼마나":7729,"하시는":7730,"만화를</w>":7731,"여러모로</w>":7732,"해서는</w>":7733,"만큼의</w>":7734,"초등학교</w>":7735,"역겨운</w>":7736,"브루스</w>":7737,"2가</w>":7738,"ㅜㅜㅜ</w>":7739,"것과</w>":7740,"고독":7741,"공연":7742,"공주":7743,"국어":7744,"나아":7745,"다리":7746,"다보고</w>":7747,"던것</w>":7748,"동네</w>":7749,"된게</w>":7750,"말에</w>":7751,"말하려":7752,"맞나</w>":7753,"맨이</w>":7754,"모아":7755,"무거":7756,"뭐야":7757,"미야":7758,"박시":7759,"박찬":7760,"보라</w>":7761,"볼거":7762,"분한</w>":7763,"빠지는</w>":7764,"섹스</w>":7765,"안가는</w>":7766,"안어울":7767,"알앗":7768,"왔어요</w>":7769,"을것</w>":7770,"일어나":7771,"잇는</w>":7772,"있겠":7773,"작가는</w>":7774,"저냥</w>":7775,"적을</w>":7776,"졸리":7777,"주네</w>":7778,"평화":7779,"피터":7780,"하긴":7781,"하실":7782,"한데":7783,"향연</w>":7784,"영화속</w>":7785,"사람만</w>":7786,"아니라면</w>":7787,"이라는":7788,"재미없네요</w>":7789,"주인공들이</w>":7790,"마지막회":7791,"하고자":7792,"짜증나게</w>":7793,"남자는</w>":7794,"이거보단</w>":7795,"부분을</w>":7796,"어이가":7797,"의미도</w>":7798,"없는듯</w>":7799,"분위기는</w>":7800,"나올때</w>":7801,"오래전에</w>":7802,"독특하고</w>":7803,"성룡의</w>":7804,"아빠가</w>":7805,"관심이</w>":7806,"가장한</w>":7807,"카리스마</w>":7808,"본방사수":7809,"블록버스터":7810,"심형래":7811,"우뢰매":7812,"bad</w>":7813,"바탕으로</w>":7814,"1인":7815,"1회":7816,"TV</w>":7817,"감성을</w>":7818,"고전</w>":7819,"까지만</w>":7820,"는군</w>":7821,"능가":7822,"되어서</w>":7823,"랑은</w>":7824,"리즈</w>":7825,"말투":7826,"몇년":7827,"몰라":7828,"미의</w>":7829,"받은":7830,"배는</w>":7831,"보임</w>":7832,"보겠다</w>":7833,"상황</w>":7834,"생긴":7835,"소지":7836,"실패</w>":7837,"알수</w>":7838,"았음</w>":7839,"어야지</w>":7840,"요새</w>":7841,"원래":7842,"으니":7843,"의해</w>":7844,"이고":7845,"이서</w>":7846,"인한</w>":7847,"장진":7848,"전도":7849,"주기":7850,"진행</w>":7851,"쯧쯧</w>":7852,"청춘</w>":7853,"클로":7854,"팔이</w>":7855,"피어":7856,"하더니</w>":7857,"한효":7858,"합시다</w>":7859,"지루함을</w>":7860,"스토리도":7861,"너무하네</w>":7862,"사랑해</w>":7863,"사랑스럽다</w>":7864,"재미없다":7865,"이상하다</w>":7866,"20대</w>":7867,"만드나</w>":7868,"음악을</w>":7869,"하기에는</w>":7870,"만들었냐</w>":7871,"추천하고</w>":7872,"배경으로</w>":7873,"한마디</w>":7874,"장르를</w>":7875,"다운받아서</w>":7876,"라고요</w>":7877,"헐리우드":7878,"환상적인</w>":7879,"내생애</w>":7880,"조잡한</w>":7881,"섬세한</w>":7882,"주성치</w>":7883,"ev":7884,"ed</w>":7885,"mb":7886,"과도":7887,"교회":7888,"그로":7889,"그를</w>":7890,"그당시</w>":7891,"기타":7892,"꼭봐야":7893,"끝을</w>":7894,"내지</w>":7895,"닥치고</w>":7896,"당하고</w>":7897,"되길</w>":7898,"들이다</w>":7899,"레이</w>":7900,"마다":7901,"먹을":7902,"멈추":7903,"모른":7904,"문에</w>":7905,"미드":7906,"민이</w>":7907,"보지도</w>":7908,"본것":7909,"뿐만</w>":7910,"스파":7911,"시걸</w>":7912,"심사":7913,"심에</w>":7914,"어색</w>":7915,"엽기":7916,"우린</w>":7917,"으셨":7918,"이영":7919,"이영화의</w>":7920,"잠을</w>":7921,"주제</w>":7922,"즈가</w>":7923,"짱이다</w>":7924,"쩌네</w>":7925,"초월":7926,"커버":7927,"케빈":7928,"할정도로</w>":7929,"호흡":7930,"황금":7931,"후반</w>":7932,"스토리로</w>":7933,"이라는게</w>":7934,"하는듯</w>":7935,"아깝습니다</w>":7936,"주인공들의</w>":7937,"하고도</w>":7938,"애니를</w>":7939,"별로네요</w>":7940,"는거임</w>":7941,"보고싶네요</w>":7942,"영화였는데</w>":7943,"대사와</w>":7944,"재밌었던</w>":7945,"충분한</w>":7946,"세계를</w>":7947,"허무한</w>":7948,"마무리가</w>":7949,"선생님":7950,"포인트":7951,"어두운</w>":7952,"가만":7953,"가자</w>":7954,"개의</w>":7955,"경찰</w>":7956,"곳에서</w>":7957,"관점":7958,"기까지</w>":7959,"나지</w>":7960,"내서</w>":7961,"내돈</w>":7962,"놈은</w>":7963,"눈빛</w>":7964,"니버":7965,"뜨고</w>":7966,"말았다</w>":7967,"무거운</w>":7968,"물은</w>":7969,"뭐라":7970,"바람</w>":7971,"배가</w>":7972,"상대":7973,"섬뜩":7974,"소가</w>":7975,"스턴":7976,"승전":7977,"시도는</w>":7978,"오직</w>":7979,"요일</w>":7980,"음식":7981,"의한</w>":7982,"이별":7983,"인류":7984,"있나요</w>":7985,"자꾸":7986,"잠이</w>":7987,"잡을</w>":7988,"적당</w>":7989,"조기":7990,"죽을</w>":7991,"집에":7992,"첩보":7993,"치료":7994,"한의</w>":7995,"해줘서</w>":7996,"영화적</w>":7997,"만들기</w>":7998,"스토리나</w>":7999,"한국판</w>":8000,"재밋고</w>":8001,"애니매이":8002,"하기는</w>":8003,"개봉한</w>":8004,"아직도":8005,"만들었으면</w>":8006,"보고싶어요</w>":8007,"소리만</w>":8008,"한번더</w>":8009,"1편의</w>":8010,"힘들었다</w>":8011,"역사에</w>":8012,"재밌게봤는데</w>":8013,"것같네요</w>":8014,"가치도</w>":8015,"두번째</w>":8016,"울었어요</w>":8017,"미안하다</w>":8018,"후반부에</w>":8019,"깔끔한</w>":8020,"참고로</w>":8021,"어처구니":8022,"어처구니</w>":8023,"조니뎁":8024,"트랜스포":8025,"개콘":8026,"고스":8027,"관을</w>":8028,"난무":8029,"날라":8030,"날아":8031,"노동":8032,"노는</w>":8033,"녹아":8034,"놓고":8035,"는게":8036,"다행</w>":8037,"두사":8038,"뒤로":8039,"들을":8040,"라지만</w>":8041,"만난</w>":8042,"맞음</w>":8043,"못하네</w>":8044,"미를</w>":8045,"바란다</w>":8046,"반응":8047,"별점이</w>":8048,"살리지</w>":8049,"상징":8050,"설경":8051,"소녀</w>":8052,"싶다면</w>":8053,"않습니다</w>":8054,"얘기를</w>":8055,"오우":8056,"으면서도</w>":8057,"이순":8058,"이어서</w>":8059,"이어지":8060,"인게</w>":8061,"입니까</w>":8062,"있어도</w>":8063,"잠시</w>":8064,"저리":8065,"지상":8066,"차태":8067,"책으로</w>":8068,"첨으로</w>":8069,"퀄리티</w>":8070,"클리":8071,"타는</w>":8072,"판을</w>":8073,"할머니</w>":8074,"해놓고</w>":8075,"최고였":8076,"최고라고</w>":8077,"사람과</w>":8078,"사람에게</w>":8079,"하는구나</w>":8080,"기억이":8081,"작품에</w>":8082,"유치해</w>":8083,"공포가</w>":8084,"떨어진</w>":8085,"안되네</w>":8086,"다는것</w>":8087,"느끼게":8088,"해야하나</w>":8089,"초반엔</w>":8090,"상황이</w>":8091,"자연스럽게</w>":8092,"이따위</w>":8093,"진실을</w>":8094,"삼류영화</w>":8095,"적당한</w>":8096,"하지마</w>":8097,"소름끼치는</w>":8098,"몰입도도</w>":8099,"이소룡":8100,"컴퓨터</w>":8101,"2년</w>":8102,"500":8103,"to":8104,"가도</w>":8105,"갈때</w>":8106,"거품":8107,"겠어</w>":8108,"고질":8109,"그거</w>":8110,"극중</w>":8111,"넘넘</w>":8112,"넘치고</w>":8113,"노출</w>":8114,"달라고</w>":8115,"도로</w>":8116,"들지</w>":8117,"리언":8118,"말밖에</w>":8119,"문화</w>":8120,"미션":8121,"발로":8122,"방향":8123,"부활":8124,"뻔하다</w>":8125,"상실":8126,"소리는</w>":8127,"속을</w>":8128,"승리":8129,"시켜</w>":8130,"시끄러":8131,"아메리":8132,"없구</w>":8133,"엉뚱":8134,"여행</w>":8135,"예측":8136,"오페":8137,"오의</w>":8138,"원하는</w>":8139,"으시":8140,"을거":8141,"이때":8142,"이자":8143,"일품</w>":8144,"조연</w>":8145,"좋더라</w>":8146,"지극히</w>":8147,"찬양":8148,"치고":8149,"크루즈":8150,"트릭":8151,"피곤":8152,"한개":8153,"해진":8154,"했는데":8155,"혼란":8156,"활용":8157,"재밌다는</w>":8158,"연기의</w>":8159,"최고에요</w>":8160,"10대</w>":8161,"감동이다</w>":8162,"스토리가":8163,"하나도":8164,"아까울</w>":8165,"아이돌</w>":8166,"이해도</w>":8167,"보여서</w>":8168,"아무나</w>":8169,"필요한가</w>":8170,"이야기에</w>":8171,"극장에</w>":8172,"10점은</w>":8173,"이거나</w>":8174,"나와도</w>":8175,"대사를</w>":8176,"행복하게</w>":8177,"완벽하게</w>":8178,"주연의</w>":8179,"하겠습니다</w>":8180,"30분</w>":8181,"두번째":8182,"스케일</w>":8183,"메세지를</w>":8184,"질질끄":8185,"새끼들</w>":8186,"죽음을</w>":8187,"연예인":8188,"웃겼다</w>":8189,"느낀다</w>":8190,"이병헌":8191,"movie</w>":8192,"1위</w>":8193,"3편</w>":8194,"b급":8195,"강요":8196,"것보다</w>":8197,"군더더":8198,"그자체":8199,"글쎄":8200,"김명":8201,"나로":8202,"나은":8203,"납득":8204,"놈들이</w>":8205,"능력</w>":8206,"당하는</w>":8207,"돈벌":8208,"되냐</w>":8209,"또봐도</w>":8210,"라곤</w>":8211,"라는게</w>":8212,"만세</w>":8213,"망가":8214,"명성에</w>":8215,"문득</w>":8216,"반담":8217,"본능":8218,"부의</w>":8219,"사과":8220,"삶은</w>":8221,"손꼽":8222,"손예":8223,"송승":8224,"심리</w>":8225,"씨도</w>":8226,"안드":8227,"안의</w>":8228,"안다</w>":8229,"안되</w>":8230,"안봄</w>":8231,"안봐서</w>":8232,"않아요</w>":8233,"알리":8234,"없으니</w>":8235,"엉성</w>":8236,"여기에</w>":8237,"여주인공의</w>":8238,"연상":8239,"오르":8240,"오해":8241,"웃다가</w>":8242,"이태":8243,"이것은</w>":8244,"입고</w>":8245,"쟁이</w>":8246,"저것</w>":8247,"정사":8248,"제가":8249,"지우":8250,"쩡한</w>":8251,"터지는</w>":8252,"한동안</w>":8253,"할말이":8254,"희의</w>":8255,"지루했음</w>":8256,"감동적인":8257,"감독님의</w>":8258,"좋아하네요</w>":8259,"하는것도</w>":8260,"기대하지</w>":8261,"아까워요</w>":8262,"아이들에게</w>":8263,"장면과</w>":8264,"OOOO":8265,"지마세요</w>":8266,"나왔음</w>":8267,"웃기는</w>":8268,"어디서":8269,"막장드라마</w>":8270,"긴장감은</w>":8271,"인물들의</w>":8272,"나이에</w>":8273,"이딴게</w>":8274,"킬링타임용으로도</w>":8275,"완성도가</w>":8276,"어쩔수</w>":8277,"상처를</w>":8278,"다큐멘터리":8279,"기발한</w>":8280,"뛰어넘는</w>":8281,"점수준것들</w>":8282,"어차피</w>":8283,"28":8284,"2년":8285,"el":8286,"ha":8287,"간히</w>":8288,"감수":8289,"같다":8290,"개나":8291,"고인의</w>":8292,"곳이</w>":8293,"공허":8294,"구경":8295,"기자</w>":8296,"나만":8297,"남는게</w>":8298,"내시간</w>":8299,"냉정":8300,"네용</w>":8301,"로멘":8302,"무의미":8303,"믿을</w>":8304,"바랬":8305,"바가</w>":8306,"박평":8307,"버린다</w>":8308,"보니":8309,"봤다는</w>":8310,"불과":8311,"비하":8312,"살아</w>":8313,"싶음</w>":8314,"쓴다</w>":8315,"아픈":8316,"안습":8317,"어로</w>":8318,"요일":8319,"움에</w>":8320,"원피":8321,"원을</w>":8322,"위안":8323,"유승":8324,"이스":8325,"자도</w>":8326,"잘함</w>":8327,"잘하는</w>":8328,"재수":8329,"정주":8330,"중에":8331,"중학생":8332,"지독":8333,"지다</w>":8334,"최소한</w>":8335,"커서</w>":8336,"코드":8337,"틀림":8338,"하더라도</w>":8339,"한정":8340,"한계</w>":8341,"영화계의</w>":8342,"사람들도</w>":8343,"만들수</w>":8344,"아니였":8345,"아니네요</w>":8346,"보는거</w>":8347,"최악임</w>":8348,"1점준다</w>":8349,"에서나</w>":8350,"ㅋㅋㅋㅋㅋㅋㅋㅋㅋㅋㅋ</w>":8351,"아름다움</w>":8352,"10점이</w>":8353,"나왔던</w>":8354,"아쉬워요</w>":8355,"감동적이에요</w>":8356,"1편에</w>":8357,"지말자</w>":8358,"귀여움</w>":8359,"완벽하다</w>":8360,"어울리지</w>":8361,"oooo":8362,"상황에</w>":8363,"캐스팅은</w>":8364,"2편도</w>":8365,"시절을</w>":8366,"취향은</w>":8367,"흘러가는</w>":8368,"그려낸</w>":8369,"빠지게</w>":8370,"제이슨</w>":8371,"크리스마스</w>":8372,"본방사수</w>":8373,"제니퍼</w>":8374,"더욱더</w>":8375,"두고두고</w>":8376,"gh":8377,"강지":8378,"구혜":8379,"기보단</w>":8380,"김선":8381,"나니</w>":8382,"나간</w>":8383,"네가</w>":8384,"노무":8385,"높네</w>":8386,"눈요":8387,"는줄</w>":8388,"달라</w>":8389,"달리는</w>":8390,"대본</w>":8391,"던데요</w>":8392,"도에</w>":8393,"돈아까워</w>":8394,"들여</w>":8395,"따위</w>":8396,"마인":8397,"막판</w>":8398,"만하고</w>":8399,"먹고":8400,"버무":8401,"버리지</w>":8402,"번도</w>":8403,"베트":8404,"보일":8405,"보통":8406,"본다":8407,"살이</w>":8408,"수정":8409,"시오</w>":8410,"신인":8411,"신도</w>":8412,"실수":8413,"싶었는데</w>":8414,"쓰러":8415,"쓰지</w>":8416,"아깝</w>":8417,"안성":8418,"어서":8419,"어째</w>":8420,"여배우가</w>":8421,"올레":8422,"요리":8423,"원에</w>":8424,"위의</w>":8425,"있는게</w>":8426,"있으니</w>":8427,"장군":8428,"잼없다</w>":8429,"저평가":8430,"조낸</w>":8431,"줄알았":8432,"지저":8433,"촬영</w>":8434,"편하게</w>":8435,"하드":8436,"하네요":8437,"하구만</w>":8438,"한영화":8439,"흑인":8440,"영화같은</w>":8441,"연기로</w>":8442,"평점도</w>":8443,"감독에게</w>":8444,"이상해</w>":8445,"이상함</w>":8446,"느낌도</w>":8447,"ㅋㅋㅋㅋㅋㅋㅋㅋㅋㅋ</w>":8448,"애니가</w>":8449,"부분에</w>":8450,"억지스럽고</w>":8451,"봐야겠다</w>":8452,"다는건지</w>":8453,"잼있게":8454,"코미디는</w>":8455,"노래는</w>":8456,"추억을</w>":8457,"영화인것</w>":8458,"이것보다</w>":8459,"영상미와</w>":8460,"싫어하는</w>":8461,"메세지가</w>":8462,"귀신이</w>":8463,"특수효과":8464,"감명깊게</w>":8465,"겨울왕":8466,"EBS":8467,"가네</w>":8468,"간단":8469,"겠다고</w>":8470,"괴롭":8471,"구구":8472,"군대</w>":8473,"귀찮":8474,"그녀</w>":8475,"노의</w>":8476,"높아":8477,"더라고요</w>":8478,"데스":8479,"되게":8480,"떠올리":8481,"많음</w>":8482,"맛에</w>":8483,"먹을</w>":8484,"몇번</w>":8485,"모호":8486,"몸에</w>":8487,"미치는</w>":8488,"비참":8489,"뻔함</w>":8490,"살렸다</w>":8491,"서정":8492,"센스":8493,"수도":8494,"시기":8495,"시험":8496,"시끄럽":8497,"애절":8498,"어째":8499,"연이</w>":8500,"열광":8501,"외면":8502,"웃을</w>":8503,"위로":8504,"위가</w>":8505,"윌리스":8506,"이니":8507,"재개봉":8508,"적나라":8509,"제국":8510,"좋고":8511,"줄알았다</w>":8512,"중에서도</w>":8513,"지배":8514,"짱이":8515,"쪽팔":8516,"차이가</w>":8517,"킬러":8518,"타쿠":8519,"평균":8520,"평이":8521,"학년</w>":8522,"한것도</w>":8523,"영화일":8524,"배우와</w>":8525,"아니네</w>":8526,"스토리라":8527,"기대이하</w>":8528,"액션만</w>":8529,"때문이다</w>":8530,"지금까지":8531,"다시보기":8532,"재밋네요</w>":8533,"이거보다</w>":8534,"살아있는</w>":8535,"힘들었":8536,"주제에</w>":8537,"영상미도</w>":8538,"설명이</w>":8539,"높은지</w>":8540,"후반부로</w>":8541,"ost도</w>":8542,"난해한</w>":8543,"아련한</w>":8544,"에피소드":8545,"아류작</w>":8546,"세련된</w>":8547,"아기자기":8548,"도라에":8549,"가네요</w>":8550,"가는게</w>":8551,"게도</w>":8552,"끝난다</w>":8553,"낭만":8554,"다ㅠㅠ</w>":8555,"돌아</w>":8556,"마케":8557,"명품</w>":8558,"묘사가</w>":8559,"미쳐":8560,"밖에는</w>":8561,"버튼":8562,"보라":8563,"부르는</w>":8564,"불법":8565,"빠른</w>":8566,"수십":8567,"수밖에</w>":8568,"스코":8569,"신세":8570,"앞서":8571,"어어":8572,"여유":8573,"영은</w>":8574,"옆에</w>":8575,"오인":8576,"오고</w>":8577,"유익":8578,"이영화에</w>":8579,"이구만</w>":8580,"있고":8581,"잘하네요</w>":8582,"잠깐":8583,"저지":8584,"저기</w>":8585,"저나</w>":8586,"좋게":8587,"지네요</w>":8588,"진수</w>":8589,"찍는</w>":8590,"찬사를</w>":8591,"채워":8592,"처절":8593,"치는":8594,"통해서</w>":8595,"피가</w>":8596,"하디</w>":8597,"하려</w>":8598,"학창":8599,"영화같":8600,"영화계":8601,"연기하는</w>":8602,"1000":8603,"감동도없고</w>":8604,"사랑도</w>":8605,"드라마라고</w>":8606,"재미없었음</w>":8607,"아이고</w>":8608,"장면에</w>":8609,"처음이네</w>":8610,"기억나는</w>":8611,"기억난다</w>":8612,"쓰레기네</w>":8613,"주인공도</w>":8614,"이상도</w>":8615,"여자들이</w>":8616,"공포도</w>":8617,"남자를</w>":8618,"인생에서</w>":8619,"아직까지도</w>":8620,"만든건지</w>":8621,"개인적인</w>":8622,"알바생":8623,"감동적이었다</w>":8624,"미국식</w>":8625,"ㅎㅎㅎ":8626,"고싶은</w>":8627,"긴장감과</w>":8628,"언제까지</w>":8629,"어지럽":8630,"다음으로</w>":8631,"잘못된</w>":8632,"어설프게</w>":8633,"풀어낸</w>":8634,"취향이</w>":8635,"영웅본":8636,"스포츠":8637,"싸이코</w>":8638,"남기는데</w>":8639,"오그라드는</w>":8640,"오랫동안</w>":8641,"밋밋한</w>":8642,"패러디</w>":8643,"개인적으로는</w>":8644,"해리포터":8645,"다크나이":8646,"오프닝":8647,"조차도</w>":8648,"9점대":8649,"b급</w>":8650,"sh":8651,"wa":8652,"감성이</w>":8653,"거듭":8654,"것인지</w>":8655,"경이":8656,"관대":8657,"길래":8658,"께서</w>":8659,"끼리":8660,"나서":8661,"니의</w>":8662,"달아":8663,"답다</w>":8664,"던게</w>":8665,"덩어":8666,"도중에</w>":8667,"되네</w>":8668,"따스":8669,"롭게</w>":8670,"몰라</w>":8671,"못할":8672,"문을</w>":8673,"반갑":8674,"보나</w>":8675,"복수</w>":8676,"볼까</w>":8677,"봣어요</w>":8678,"살린":8679,"살인</w>":8680,"상큼":8681,"색깔":8682,"스로</w>":8683,"시사회</w>":8684,"싫어</w>":8685,"애들이":8686,"없구나</w>":8687,"에비해</w>":8688,"우롱":8689,"울뿐</w>":8690,"원조":8691,"위트":8692,"위를</w>":8693,"장에</w>":8694,"점점":8695,"제작</w>":8696,"조심":8697,"주관":8698,"주시":8699,"주려고</w>":8700,"줄알았는데</w>":8701,"지와</w>":8702,"참여":8703,"참을</w>":8704,"채플":8705,"치지</w>":8706,"프라이":8707,"필름</w>":8708,"하였":8709,"후하게</w>":8710,"흘렸":8711,"히고</w>":8712,"생각만</w>":8713,"아니고":8714,"아깝다는</w>":8715,"현실에</w>":8716,"현실적으로</w>":8717,"지금보면</w>":8718,"지않게</w>":8719,"인간적으로</w>":8720,"나왔는데</w>":8721,"느껴지지</w>":8722,"어디에</w>":8723,"제작진</w>":8724,"어설픈":8725,"인상적</w>":8726,"할수있는</w>":8727,"하려면</w>":8728,"100점</w>":8729,"오글거리고</w>":8730,"라는걸</w>":8731,"걸작이다</w>":8732,"나머진</w>":8733,"거기서</w>":8734,"웃긴다</w>":8735,"하셨습니다</w>":8736,"tv에서</w>":8737,"소장하고</w>":8738,"감동적입니다</w>":8739,"존경합니다</w>":8740,"감명깊":8741,"새로운":8742,"의리의리":8743,"고맙습니다</w>":8744,"네티즌":8745,"박중훈":8746,"웬만하면</w>":8747,"뒤죽박죽</w>":8748,"호불호가</w>":8749,"80년대":8750,"가난":8751,"가다</w>":8752,"갔다가</w>":8753,"것들을</w>":8754,"구먼</w>":8755,"기존":8756,"김윤":8757,"나비":8758,"날리":8759,"남성":8760,"남친":8761,"낮게":8762,"너희":8763,"논리":8764,"다들":8765,"당장</w>":8766,"더군</w>":8767,"던거":8768,"드물":8769,"들러":8770,"등이</w>":8771,"레드":8772,"로빈":8773,"론의</w>":8774,"리얼</w>":8775,"밖엔</w>":8776,"배워":8777,"벗어나":8778,"빈약":8779,"설마":8780,"쉽지</w>":8781,"시의</w>":8782,"신데":8783,"안보는":8784,"안보면</w>":8785,"안나오고</w>":8786,"않네</w>":8787,"어머니</w>":8788,"없애":8789,"없군</w>":8790,"에이</w>":8791,"여신":8792,"여배우의</w>":8793,"열심":8794,"우선</w>":8795,"워낙</w>":8796,"이경":8797,"장근":8798,"장에서</w>":8799,"조승":8800,"증을</w>":8801,"지어":8802,"차이</w>":8803,"치만</w>":8804,"콘서":8805,"크다</w>":8806,"표정이</w>":8807,"피를</w>":8808,"한예":8809,"할줄</w>":8810,"황당</w>":8811,"생각에</w>":8812,"최고봉</w>":8813,"사람마다</w>":8814,"ㅋㅋㅋㅋㅋㅋ":8815,"아니냐</w>":8816,"10대":8817,"하는데":8818,"이런식으로</w>":8819,"공포물</w>":8820,"하고싶은</w>":8821,"볼만한데</w>":8822,"10점준</w>":8823,"안되서</w>":8824,"억지스런</w>":8825,"가족과</w>":8826,"표현할</w>":8827,"재밌었습니다</w>":8828,"의미있는</w>":8829,"무엇인가</w>":8830,"슬프네요</w>":8831,"엔딩은</w>":8832,"만화가</w>":8833,"잔인하고</w>":8834,"캐스팅도</w>":8835,"사이에서</w>":8836,"성우가</w>":8837,"그림체":8838,"이렇게까지</w>":8839,"평론가들</w>":8840,"시원한</w>":8841,"거짓말":8842,"분명히</w>":8843,"편견을</w>":8844,"러시아":8845,"명불허전</w>":8846,"아카데":8847,"에드워":8848,"어수선":8849,"1은</w>":8850,"3년</w>":8851,"7년":8852,"8점은</w>":8853,"M창":8854,"or</w>":8855,"ㄱㄱ</w>":8856,"가깝":8857,"가리":8858,"가치</w>":8859,"고를</w>":8860,"과정을</w>":8861,"그닥":8862,"끌고":8863,"날려":8864,"남긴다</w>":8865,"넘쳐":8866,"는다":8867,"니들이</w>":8868,"된다고</w>":8869,"란히</w>":8870,"로드</w>":8871,"리스트":8872,"머지</w>":8873,"묘사</w>":8874,"뭔가요</w>":8875,"바보</w>":8876,"박정":8877,"발연기에</w>":8878,"배꼽":8879,"변호":8880,"보셨":8881,"보면서":8882,"봤어요":8883,"부산":8884,"성숙":8885,"센스</w>":8886,"심장이</w>":8887,"싶으면</w>":8888,"얘기가</w>":8889,"열자":8890,"온갖</w>":8891,"우디":8892,"원에서</w>":8893,"웨이</w>":8894,"유발</w>":8895,"음ㅋ</w>":8896,"이중":8897,"이긴</w>":8898,"이드라마":8899,"인지는</w>":8900,"임청":8901,"자격":8902,"자면</w>":8903,"재치":8904,"잼씀</w>":8905,"전에":8906,"즐길":8907,"증명":8908,"지워":8909,"짱임</w>":8910,"청소년</w>":8911,"카타":8912,"크가</w>":8913,"탈출</w>":8914,"태권":8915,"픽션":8916,"한걸</w>":8917,"호의</w>":8918,"홍진":8919,"환타":8920,"흐지부":8921,"영화화":8922,"영화자체는</w>":8923,"사람들이":8924,"재미있어서</w>":8925,"10분</w>":8926,"스토리지만</w>":8927,"기대된다</w>":8928,"아이들은</w>":8929,"마음에":8930,"지금이나</w>":8931,"공포영화는</w>":8932,"스러웠다</w>":8933,"있는듯</w>":8934,"캐릭터의</w>":8935,"어디가</w>":8936,"소리를</w>":8937,"부족하고</w>":8938,"연기력과</w>":8939,"세상의</w>":8940,"전쟁영화</w>":8941,"허접하고</w>":8942,"초반에는</w>":8943,"나올까</w>":8944,"설정과</w>":8945,"이것저것</w>":8946,"말아먹":8947,"관심을</w>":8948,"전편보다</w>":8949,"피해자":8950,"의도를</w>":8951,"느낄수":8952,"심각하게</w>":8953,"결국엔</w>":8954,"떠오르":8955,"레전드":8956,"한숨만</w>":8957,"영향을</w>":8958,"나레이션":8959,"신하균":8960,"1년</w>":8961,"3년":8962,"70":8963,"ch":8964,"ri":8965,"rea":8966,"uc":8967,"가진":8968,"갖춘</w>":8969,"개같은</w>":8970,"거는</w>":8971,"거든</w>":8972,"건조":8973,"고소":8974,"고한</w>":8975,"고자</w>":8976,"고작</w>":8977,"관람</w>":8978,"구멍":8979,"꺼야</w>":8980,"남기는</w>":8981,"다리</w>":8982,"대부분":8983,"돈이":8984,"돈은</w>":8985,"된장":8986,"됬는데</w>":8987,"또는</w>":8988,"망할</w>":8989,"모독":8990,"못생겼":8991,"미술":8992,"박해":8993,"범인</w>":8994,"보니깐</w>":8995,"본적이</w>":8996,"볼걸</w>":8997,"부에</w>":8998,"사는":8999,"선수":9000,"심리를</w>":9001,"싶었던</w>":9002,"아우</w>":9003,"안겨":9004,"엑소시":9005,"의견":9006,"이기</w>":9007,"이때</w>":9008,"장소":9009,"잼없음</w>":9010,"저의</w>":9011,"정우</w>":9012,"제왕":9013,"지리":9014,"직접":9015,"춤추":9016,"태국":9017,"태어나":9018,"하의</w>":9019,"할수록</w>":9020,"형사</w>":9021,"회상":9022,"영화의":9023,"평점조절":9024,"아니라":9025,"좋아하고</w>":9026,"아이와</w>":9027,"이상을</w>":9028,"공포영화가</w>":9029,"재밋는데</w>":9030,"만드는지</w>":9031,"무섭게</w>":9032,"의미없는</w>":9033,"진부하다</w>":9034,"초반부터</w>":9035,"사회적</w>":9036,"충분하다</w>":9037,"비교하면</w>":9038,"어렸을때":9039,"케이블</w>":9040,"머리에</w>":9041,"가치를</w>":9042,"개그맨":9043,"시절에</w>":9044,"몰랐는데</w>":9045,"식상하다</w>":9046,"울었습니다</w>":9047,"이번에</w>":9048,"생각해보게</w>":9049,"연기자들</w>":9050,"짱짱맨</w>":9051,"아줌마</w>":9052,"한계를</w>":9053,"제대로된</w>":9054,"이따위로</w>":9055,"힘내세요</w>":9056,"C급</w>":9057,"ow</w>":9058,"ra":9059,"걸리":9060,"게리":9061,"결혼</w>":9062,"고은":9063,"기록":9064,"남는건</w>":9065,"너는</w>":9066,"넘은</w>":9067,"노골":9068,"놀랬":9069,"는지도</w>":9070,"다ㅠ</w>":9071,"던데":9072,"돈내":9073,"드려요</w>":9074,"등을</w>":9075,"따로":9076,"리브":9077,"말이다</w>":9078,"망친</w>":9079,"명확":9080,"못따라":9081,"믿기지</w>":9082,"바이</w>":9083,"받지</w>":9084,"발랄":9085,"방에서</w>":9086,"배드":9087,"본듯한</w>":9088,"볼땐</w>":9089,"불가능":9090,"블랙</w>":9091,"살때</w>":9092,"상당한</w>":9093,"색채":9094,"생존":9095,"소문":9096,"승부":9097,"시를</w>":9098,"아래":9099,"야한</w>":9100,"엇음</w>":9101,"와일":9102,"움은</w>":9103,"워지는</w>":9104,"유부":9105,"이기에</w>":9106,"인걸</w>":9107,"자주":9108,"절정</w>":9109,"조화</w>":9110,"존재</w>":9111,"지가":9112,"천사":9113,"콜린":9114,"파라노":9115,"하루</w>":9116,"학살":9117,"한줄":9118,"할것</w>":9119,"해줄":9120,"재미있는":9121,"시간과</w>":9122,"보는줄</w>":9123,"액션에</w>":9124,"처음본다</w>":9125,"쓰레기쓰레기":9126,"주인공을</w>":9127,"1점주":9128,"현실적이고</w>":9129,"연출을</w>":9130,"남자주인공</w>":9131,"명작임</w>":9132,"보기는</w>":9133,"수준이다</w>":9134,"결말이":9135,"코미디가</w>":9136,"영화라는게</w>":9137,"분위기를</w>":9138,"어린이</w>":9139,"그나저나</w>":9140,"불쌍해서</w>":9141,"평가를</w>":9142,"설정에</w>":9143,"빠져들게</w>":9144,"내가본":9145,"많은것을</w>":9146,"CG는</w>":9147,"아프리":9148,"화이팅":9149,"이후에</w>":9150,"바라보는</w>":9151,"훈훈하고</w>":9152,"즐겁고</w>":9153,"해피엔딩</w>":9154,"그럴듯":9155,"메시지를</w>":9156,"미래를</w>":9157,"흥미롭게</w>":9158,"후속작":9159,"고등학교</w>":9160,"9999":9161,"스트레스":9162,"아픔을</w>":9163,"1점준것":9164,"러닝타임이</w>":9165,"짜집기</w>":9166,"교과서</w>":9167,"그럼에도</w>":9168,"시간때우기":9169,"비쥬얼":9170,"ee":9171,"걸린</w>":9172,"게이</w>":9173,"구의</w>":9174,"굿굿굿</w>":9175,"귀가</w>":9176,"그들을</w>":9177,"끝은</w>":9178,"나간":9179,"낚여서</w>":9180,"남을":9181,"너의</w>":9182,"다코":9183,"다보니</w>":9184,"데려":9185,"되어야</w>":9186,"들보다</w>":9187,"라스트":9188,"로망":9189,"로우":9190,"망설":9191,"매미":9192,"못했":9193,"미장":9194,"방황":9195,"배려":9196,"보석":9197,"보셔":9198,"보낸다</w>":9199,"봤어</w>":9200,"비해서</w>":9201,"빈약한</w>":9202,"사로":9203,"살렸":9204,"상도</w>":9205,"서스":9206,"손발":9207,"수가":9208,"시네":9209,"신민":9210,"아끼":9211,"어주":9212,"에일":9213,"역의</w>":9214,"위에서</w>":9215,"은거</w>":9216,"을지</w>":9217,"장은</w>":9218,"잼나요</w>":9219,"전문</w>":9220,"주먹":9221,"줘라</w>":9222,"증말</w>":9223,"지브":9224,"차가":9225,"터짐</w>":9226,"토마":9227,"파고":9228,"패션":9229,"평은</w>":9230,"풍자":9231,"하죠</w>":9232,"한이</w>":9233,"한사람":9234,"혀서</w>":9235,"형님":9236,"히스":9237,"히히":9238,"최고인듯</w>":9239,"내용으로</w>":9240,"사랑해":9241,"이런것도</w>":9242,"보는동안</w>":9243,"장면의</w>":9244,"기억을</w>":9245,"1점이</w>":9246,"만드는":9247,"필요없음</w>":9248,"명작이라고</w>":9249,"아름다웠다</w>":9250,"원작은</w>":9251,"안되게</w>":9252,"가족영화</w>":9253,"잔잔하면서도</w>":9254,"노래를</w>":9255,"없었으면</w>":9256,"더럽고</w>":9257,"자연스러운</w>":9258,"누구도</w>":9259,"미친듯이</w>":9260,"우리나라의</w>":9261,"킬링타임용도</w>":9262,"졸작이다</w>":9263,"동화같은</w>":9264,"분들께</w>":9265,"고등학생":9266,"특수효과</w>":9267,"같아요":9268,"예뻐서</w>":9269,"미야자":9270,"60":9271,"to</w>":9272,"가해":9273,"감탄</w>":9274,"것같은데</w>":9275,"공유":9276,"괴로":9277,"그대":9278,"그들은</w>":9279,"기승전":9280,"김소":9281,"깊이":9282,"끄고</w>":9283,"끝판":9284,"날이</w>":9285,"네ㅋㅋ</w>":9286,"늦게":9287,"돋보인다</w>":9288,"된다":9289,"디아":9290,"땜시</w>":9291,"똑똑":9292,"뜨거":9293,"레기</w>":9294,"로우</w>":9295,"리암":9296,"마을":9297,"멋져</w>":9298,"모방":9299,"무척":9300,"버전":9301,"버전</w>":9302,"번역":9303,"볼까":9304,"볼거리</w>":9305,"상한</w>":9306,"상영</w>":9307,"새록</w>":9308,"선택</w>":9309,"송혜":9310,"시사":9311,"시스":9312,"아서":9313,"아다</w>":9314,"야하지도</w>":9315,"어떡":9316,"어고</w>":9317,"엉터":9318,"에바":9319,"여튼</w>":9320,"였다면</w>":9321,"영환</w>":9322,"예쁨</w>":9323,"우승":9324,"유리</w>":9325,"이겨":9326,"인영화</w>":9327,"일이다</w>":9328,"있다는게</w>":9329,"잡을":9330,"잼있는</w>":9331,"정은</w>":9332,"지원":9333,"찡한</w>":9334,"총격":9335,"폭력</w>":9336,"하리":9337,"한대</w>":9338,"해져":9339,"흥분":9340,"히로":9341,"영화화</w>":9342,"영화들은</w>":9343,"연기한</w>":9344,"생각을":9345,"재미있어":9346,"좋아해요</w>":9347,"사랑한다</w>":9348,"모르는":9349,"작품도</w>":9350,"유치뽕":9351,"볼만해요</w>":9352,"매력적이다</w>":9353,"웃기네</w>":9354,"만들었네</w>":9355,"이었고</w>":9356,"무섭지</w>":9357,"추천한다</w>":9358,"코미디의</w>":9359,"코미디영화</w>":9360,"1편을</w>":9361,"같은거</w>":9362,"관객에게</w>":9363,"배경도</w>":9364,"다큐를</w>":9365,"사회에</w>":9366,"빠져들":9367,"장르의</w>":9368,"나라의</w>":9369,"관계를</w>":9370,"알려주는</w>":9371,"하지않고</w>":9372,"누군가":9373,"홍콩영화</w>":9374,"불륜을</w>":9375,"메시지가</w>":9376,"지루함의</w>":9377,"슬펐다</w>":9378,"기대안하고":9379,"화장실":9380,"배트맨":9381,"언젠가</w>":9382,"전율이</w>":9383,"탁월한</w>":9384,"소피마르":9385,"1개도</w>":9386,"24":9387,"an</w>":9388,"ff":9389,"it":9390,"감한</w>":9391,"갔으면</w>":9392,"강하게</w>":9393,"거라고</w>":9394,"건질":9395,"것들은</w>":9396,"결과는</w>":9397,"구는</w>":9398,"구를</w>":9399,"꼬라":9400,"꼬맹":9401,"내놓":9402,"당할":9403,"던건</w>":9404,"드릴":9405,"랐다</w>":9406,"래요</w>":9407,"모순":9408,"몰입</w>":9409,"몸을</w>":9410,"문학":9411,"물론":9412,"밑도</w>":9413,"반가":9414,"발음":9415,"별반":9416,"볼때":9417,"분들도</w>":9418,"분동안</w>":9419,"불쌍</w>":9420,"서로":9421,"손발</w>":9422,"수사":9423,"실히</w>":9424,"심은":9425,"써도</w>":9426,"않으면</w>":9427,"양동":9428,"어중간":9429,"에반":9430,"역에</w>":9431,"오유":9432,"오지":9433,"욕나온다</w>":9434,"운동":9435,"웃김":9436,"웃으며</w>":9437,"이는":9438,"이랬":9439,"이혼":9440,"자들":9441,"재앙":9442,"재방송":9443,"좋으":9444,"죽기전에</w>":9445,"줘요</w>":9446,"지니":9447,"추구":9448,"친절":9449,"풀어나":9450,"풍부":9451,"할려고</w>":9452,"할말을</w>":9453,"행크":9454,"향한</w>":9455,"홍금":9456,"흥행</w>":9457,"힐링</w>":9458,"배우로</w>":9459,"좋아했던</w>":9460,"기대한</w>":9461,"보여줌</w>":9462,"마지막에":9463,"유치원":9464,"20대":9465,"20년이</w>":9466,"일본이</w>":9467,"원작과</w>":9468,"수준은</w>":9469,"여운도</w>":9470,"좋은영화":9471,"이었지만</w>":9472,"제목과</w>":9473,"이유로</w>":9474,"시대적</w>":9475,"만화책":9476,"만화는</w>":9477,"귀여워서</w>":9478,"후회함</w>":9479,"시나리오도</w>":9480,"어쩌다</w>":9481,"시절이</w>":9482,"상영관":9483,"요소를</w>":9484,"안타깝네요</w>":9485,"이어지는</w>":9486,"123":9487,"미치도록</w>":9488,"스타일의</w>":9489,"게임을</w>":9490,"그럴싸":9491,"멋진영화</w>":9492,"히어로</w>":9493,"외계인</w>":9494,"ㅇㅇㅇㅇ":9495,"포르노</w>":9496,"응원합니다</w>":9497,"화끈한</w>":9498,"2014년</w>":9499,"교과서":9500,"부럽다</w>":9501,"The</w>":9502,"고스란히</w>":9503,"0점을</w>":9504,"1도</w>":9505,"3편은</w>":9506,"4편":9507,"가게</w>":9508,"감에</w>":9509,"감상</w>":9510,"거든":9511,"기본</w>":9512,"김성":9513,"김영":9514,"나의":9515,"나참</w>":9516,"난다":9517,"남녀</w>":9518,"내세":9519,"넘기":9520,"녀석":9521,"능력이</w>":9522,"대기":9523,"던지":9524,"데로</w>":9525,"돈아깝다</w>":9526,"돼지":9527,"되는게</w>":9528,"될수</w>":9529,"뒤늦게</w>":9530,"리나</w>":9531,"리뷰</w>":9532,"마디":9533,"마주":9534,"만에":9535,"매주</w>":9536,"못했던</w>":9537,"무색":9538,"뭐하는</w>":9539,"방금":9540,"보구":9541,"브레이":9542,"빨고</w>":9543,"뿐이고</w>":9544,"상당":9545,"새삼</w>":9546,"성찰":9547,"성인</w>":9548,"숨은</w>":9549,"스마":9550,"십니다</w>":9551,"않아도</w>":9552,"양조":9553,"어벤":9554,"어짜":9555,"여성</w>":9556,"연의</w>":9557,"왔던</w>":9558,"외에</w>":9559,"잊을수</w>":9560,"지르고</w>":9561,"진의</w>":9562,"징징":9563,"차분":9564,"총을</w>":9565,"코드</w>":9566,"클라이":9567,"팬인데</w>":9568,"한건가</w>":9569,"할거</w>":9570,"했어도</w>":9571,"혁명":9572,"환장":9573,"흑흑</w>":9574,"영화에서는</w>":9575,"생각해도</w>":9576,"지루함이</w>":9577,"사랑과":9578,"재미없는":9579,"재미없습니다</w>":9580,"아이의</w>":9581,"작품의</w>":9582,"우리에게</w>":9583,"여자주인공</w>":9584,"정말정말</w>":9585,"개봉당시</w>":9586,"안되나</w>":9587,"만든거":9588,"나온다고</w>":9589,"무서워서</w>":9590,"나와라</w>":9591,"답답해서</w>":9592,"인물이</w>":9593,"인물의</w>":9594,"주제는</w>":9595,"197":9596,"그냥저냥</w>":9597,"하겠지만</w>":9598,"시나리오를</w>":9599,"머리를</w>":9600,"에로영화</w>":9601,"하하하하":9602,"가지로</w>":9603,"있어야":9604,"있어보이":9605,"못보겠":9606,"줄거리가</w>":9607,"극장판은</w>":9608,"블랙코미디</w>":9609,"감동적임</w>":9610,"전부다</w>":9611,"타이틀":9612,"★★★★":9613,"런닝타임":9614,"봤을땐</w>":9615,"아쉬웠지만</w>":9616,"자동차":9617,"최초의</w>":9618,"유덕화</w>":9619,"뱀파이어</w>":9620,"크리스토":9621,"아만다</w>":9622,"윌리엄":9623,"3D</w>":9624,"ut</w>":9625,"감옥":9626,"경이</w>":9627,"그에</w>":9628,"꿈과</w>":9629,"나은듯</w>":9630,"남았다</w>":9631,"다를</w>":9632,"듣는</w>":9633,"리언</w>":9634,"마마":9635,"만나고</w>":9636,"말해서</w>":9637,"말하는":9638,"말하면</w>":9639,"명화</w>":9640,"별이</w>":9641,"비밀</w>":9642,"사도</w>":9643,"상어":9644,"성애</w>":9645,"속은</w>":9646,"송지":9647,"실사":9648,"싶지만</w>":9649,"씨를</w>":9650,"악을</w>":9651,"여도</w>":9652,"였나</w>":9653,"오디":9654,"욕심":9655,"은게</w>":9656,"이들":9657,"있긴</w>":9658,"잘안":9659,"장미":9660,"정재":9661,"주온":9662,"중심":9663,"쥬라":9664,"지경</w>":9665,"진리</w>":9666,"찾았":9667,"취향</w>":9668,"킬링</w>":9669,"토니":9670,"특집":9671,"판으로</w>":9672,"팔아":9673,"팬이라면</w>":9674,"함만</w>":9675,"해가는</w>":9676,"허탈":9677,"화질":9678,"희는</w>":9679,"영화처럼</w>":9680,"재미있어</w>":9681,"아니라서</w>":9682,"감독이":9683,"좋아지는</w>":9684,"기대됩니다</w>":9685,"모르고":9686,"아이러":9687,"기억나":9688,"쓰레기가</w>":9689,"쓰레기임</w>":9690,"쓰레기영화":9691,"여자친구":9692,"20년</w>":9693,"그런영화</w>":9694,"일본영화는</w>":9695,"실망이</w>":9696,"어이없":9697,"들어간</w>":9698,"캐릭터와</w>":9699,"정신을</w>":9700,"모르겠는데</w>":9701,"거리가</w>":9702,"세상은</w>":9703,"분위기도</w>":9704,"없었고</w>":9705,"하시고</w>":9706,"다른건</w>":9707,"전쟁을</w>":9708,"않았음</w>":9709,"배경과</w>":9710,"웃음과</w>":9711,"스릴러를</w>":9712,"상상력이</w>":9713,"이영화보고</w>":9714,"기다렸":9715,"노잼노잼":9716,"가지고":9717,"오늘도</w>":9718,"영화로는</w>":9719,"사건을</w>":9720,"스타일리":9721,"우울한</w>":9722,"소녀의</w>":9723,"데이빗</w>":9724,"이란게</w>":9725,"러닝타임</w>":9726,"조용히</w>":9727,"테이큰":9728,"퀄리티가</w>":9729,"00000000":9730,"장국영</w>":9731,"학년때</w>":9732,"1이</w>":9733,"1개</w>":9734,"BS</w>":9735,"si":9736,"♡♡</w>":9737,"가관":9738,"가나":9739,"갖다</w>":9740,"거에요</w>":9741,"겠는데</w>":9742,"고만</w>":9743,"골때":9744,"곱씹":9745,"괴물</w>":9746,"그럴</w>":9747,"길다</w>":9748,"끝내</w>":9749,"넘는</w>":9750,"놀란":9751,"느리고</w>":9752,"대역":9753,"도움이</w>":9754,"돈과</w>":9755,"되니</w>":9756,"되었는데</w>":9757,"됬다</w>":9758,"둘의</w>":9759,"또보고싶":9760,"레옹":9761,"로렌":9762,"로마":9763,"만나는</w>":9764,"맘이</w>":9765,"멘탈":9766,"몸이</w>":9767,"번에</w>":9768,"보진</w>":9769,"본격</w>":9770,"봣는데":9771,"부리":9772,"빠질":9773,"선의</w>":9774,"송강호":9775,"슬래":9776,"시골":9777,"시체":9778,"싸울":9779,"아요":9780,"아우":9781,"아쉽</w>":9782,"애는</w>":9783,"없다는게</w>":9784,"었지</w>":9785,"었나</w>":9786,"에대한":9787,"역할</w>":9788,"연인":9789,"울고":9790,"으러</w>":9791,"은근</w>":9792,"음에</w>":9793,"이선":9794,"일관":9795,"있는거":9796,"자들은</w>":9797,"재탕":9798,"저절로</w>":9799,"정리":9800,"제로":9801,"제를</w>":9802,"주목":9803,"주옥":9804,"중반</w>":9805,"차마</w>":9806,"천원":9807,"최소":9808,"취급":9809,"침묵":9810,"크루":9811,"태양":9812,"트에</w>":9813,"하잖아</w>":9814,"하지못":9815,"한텐</w>":9816,"함으로</w>":9817,"향이</w>":9818,"후에도</w>":9819,"영화도":9820,"재밌지</w>":9821,"최고였습니다</w>":9822,"나오다니</w>":9823,"기대되는</w>":9824,"기대이상":9825,"모르나</w>":9826,"액션씬":9827,"ㅋㅋㅋㅋㅋㅋㅋㅋㅋㅋㅋㅋㅋ</w>":9828,"소재만</w>":9829,"매력은</w>":9830,"스럽네요</w>":9831,"별로였음</w>":9832,"모습과</w>":9833,"아쉽고</w>":9834,"어이없고</w>":9835,"결말까지</w>":9836,"들어오":9837,"한번쯤은</w>":9838,"출연진</w>":9839,"막장드라마":9840,"행복을</w>":9841,"분위기에</w>":9842,"역사적</w>":9843,"지나친</w>":9844,"상상을</w>":9845,"시즌2</w>":9846,"다운받아</w>":9847,"허무맹":9848,"받아야</w>":9849,"독립영화":9850,"메세지</w>":9851,"2점준다</w>":9852,"흥미진진한</w>":9853,"선생님</w>":9854,"역할을</w>":9855,"ㄷㄷㄷㄷ":9856,"슬픈영화</w>":9857,"흐름이</w>":9858,"통쾌한</w>":9859,"에피소드</w>":9860,"과장된</w>":9861,"박진감</w>":9862,"아류작":9863,"제시카</w>":9864,"사운드":9865,"낚였네</w>":9866,"블록버스터</w>":9867,"자동차</w>":9868,"이따구로</w>":9869,"양아치":9870,"주윤발":9871,"홍상수</w>":9872,"어떠한</w>":9873,"44</w>":9874,"un":9875,"갈리":9876,"경의를</w>":9877,"고요":9878,"귀요":9879,"급으로</w>":9880,"길고</w>":9881,"깊은":9882,"꺼면</w>":9883,"끄는</w>":9884,"끊임":9885,"나지만</w>":9886,"나봐요</w>":9887,"남편</w>":9888,"닥터":9889,"대학":9890,"도없는</w>":9891,"동네":9892,"동심":9893,"될까</w>":9894,"둥이</w>":9895,"드리고</w>":9896,"듣기</w>":9897,"떡밥":9898,"레오":9899,"말지</w>":9900,"맛을</w>":9901,"명성을</w>":9902,"보단":9903,"본건</w>":9904,"부각":9905,"분장":9906,"불행":9907,"비극</w>":9908,"빠진":9909,"사상":9910,"상투":9911,"서인":9912,"서가</w>":9913,"성장</w>":9914,"신의":9915,"써라</w>":9916,"아르":9917,"알렉":9918,"알아</w>":9919,"애정":9920,"얻어":9921,"엉덩":9922,"연주":9923,"영광":9924,"욕먹":9925,"으신":9926,"이범":9927,"이드라마</w>":9928,"이스트":9929,"일단":9930,"있죠</w>":9931,"자비":9932,"조화":9933,"주상":9934,"주지":9935,"지식":9936,"진은</w>":9937,"집단":9938,"짝이":9939,"창의":9940,"촌스럽":9941,"최대의</w>":9942,"치도</w>":9943,"친일":9944,"케빈</w>":9945,"테러</w>":9946,"파트":9947,"플래":9948,"피라":9949,"하던지</w>":9950,"하정우</w>":9951,"할만":9952,"합니까</w>":9953,"해보고</w>":9954,"회를</w>":9955,"영화내내</w>":9956,"연기까지</w>":9957,"만들다</w>":9958,"재미있다고</w>":9959,"아니다":9960,"시간의</w>":9961,"드라마네요</w>":9962,"기대에</w>":9963,"작품중</w>":9964,"아무래도</w>":9965,"지않아</w>":9966,"ㅋㅋㅋㅋㅋㅋㅋㅋㅋㅋㅋㅋ</w>":9967,"일본에서</w>":9968,"보기에도</w>":9969,"영상을</w>":9970,"10점짜리</w>":9971,"아닌가":9972,"아닌지</w>":9973,"자체를</w>":9974,"보이네요</w>":9975,"잔잔하지만</w>":9976,"모습도</w>":9977,"실망스럽다</w>":9978,"없었지만</w>":9979,"하시면</w>":9980,"엔딩크레딧":9981,"관객의</w>":9982,"왜이리":9983,"할수도</w>":9984,"장르는</w>":9985,"더빙은</w>":9986,"세계가</w>":9987,"나라를</w>":9988,"어쩌라고</w>":9989,"지도않":9990,"것같아</w>":9991,"이였음</w>":9992,"영상미는</w>":9993,"이하의</w>":9994,"이기적인</w>":9995,"구성은</w>":9996,"남아있는</w>":9997,"이루어":9998,"싸구려":9999}